<s>
<pad>
</s>
<unk>
[UNK]
<mask>
INSTR1
INSTR2
INSTR3
INSTR4
INSTR5
INSTR6
INSTR7
INSTR8
INSTR9
INSTR10
INSTR11
INSTR12
INSTR13
INSTR14
INSTR15
INSTR16
INSTR17
INSTR18
INSTR19
INSTR20
INSTR21
INSTR22
INSTR23
INSTR24
INSTR25
INSTR26
INSTR27
INSTR28
INSTR29
INSTR30
INSTR31
INSTR32
INSTR33
INSTR34
INSTR35
INSTR36
INSTR37
INSTR38
INSTR39
INSTR40
INSTR41
INSTR42
INSTR43
INSTR44
INSTR45
INSTR46
INSTR47
INSTR48
INSTR49
INSTR50
INSTR51
INSTR52
INSTR53
INSTR54
INSTR55
INSTR56
INSTR57
INSTR58
INSTR59
INSTR60
INSTR61
INSTR62
INSTR63
INSTR64
INSTR65
INSTR66
INSTR67
INSTR68
INSTR69
INSTR70
INSTR71
INSTR72
INSTR73
INSTR74
INSTR75
INSTR76
INSTR77
INSTR78
INSTR79
INSTR80
INSTR81
INSTR82
INSTR83
INSTR84
INSTR85
INSTR86
INSTR87
INSTR88
INSTR89
INSTR90
INSTR91
INSTR92
INSTR93
INSTR94
INSTR95
INSTR96
INSTR97
INSTR98
INSTR99
INSTR100
INSTR101
INSTR102
INSTR103
INSTR104
INSTR105
INSTR106
INSTR107
INSTR108
INSTR109
INSTR110
INSTR111
INSTR112
INSTR113
INSTR114
INSTR115
INSTR116
INSTR117
INSTR118
INSTR119
INSTR120
INSTR121
INSTR122
INSTR123
INSTR124
INSTR125
INSTR126
INSTR127
INSTR128
INSTR129
INSTR130
INSTR131
INSTR132
INSTR133
INSTR134
INSTR135
INSTR136
INSTR137
INSTR138
INSTR139
INSTR140
INSTR141
INSTR142
INSTR143
INSTR144
INSTR145
INSTR146
INSTR147
INSTR148
INSTR149
INSTR150
INSTR151
INSTR152
INSTR153
INSTR154
INSTR155
INSTR156
INSTR157
INSTR158
INSTR159
INSTR160
INSTR161
INSTR162
INSTR163
INSTR164
INSTR165
INSTR166
INSTR167
INSTR168
INSTR169
INSTR170
INSTR171
INSTR172
INSTR173
INSTR174
INSTR175
INSTR176
INSTR177
INSTR178
INSTR179
INSTR180
INSTR181
INSTR182
INSTR183
INSTR184
INSTR185
INSTR186
INSTR187
INSTR188
INSTR189
INSTR190
INSTR191
INSTR192
INSTR193
INSTR194
INSTR195
INSTR196
INSTR197
INSTR198
INSTR199
INSTR200
INSTR201
INSTR202
INSTR203
INSTR204
INSTR205
INSTR206
INSTR207
INSTR208
INSTR209
INSTR210
INSTR211
INSTR212
INSTR213
INSTR214
INSTR215
INSTR216
INSTR217
INSTR218
INSTR219
INSTR220
INSTR221
INSTR222
INSTR223
INSTR224
INSTR225
INSTR226
INSTR227
INSTR228
INSTR229
INSTR230
INSTR231
INSTR232
INSTR233
INSTR234
INSTR235
INSTR236
INSTR237
INSTR238
INSTR239
INSTR240
INSTR241
INSTR242
INSTR243
INSTR244
INSTR245
INSTR246
INSTR247
INSTR248
INSTR249
INSTR250
INSTR251
INSTR252
INSTR253
INSTR254
INSTR255
INSTR256
INSTR257
INSTR258
INSTR259
INSTR260
INSTR261
INSTR262
INSTR263
INSTR264
INSTR265
INSTR266
INSTR267
INSTR268
INSTR269
INSTR270
INSTR271
INSTR272
INSTR273
INSTR274
INSTR275
INSTR276
INSTR277
INSTR278
INSTR279
INSTR280
INSTR281
INSTR282
INSTR283
INSTR284
INSTR285
INSTR286
INSTR287
INSTR288
INSTR289
INSTR290
INSTR291
INSTR292
INSTR293
INSTR294
INSTR295
INSTR296
INSTR297
INSTR298
INSTR299
INSTR300
INSTR301
INSTR302
INSTR303
INSTR304
INSTR305
INSTR306
INSTR307
INSTR308
INSTR309
INSTR310
INSTR311
INSTR312
INSTR313
INSTR314
INSTR315
INSTR316
INSTR317
INSTR318
INSTR319
INSTR320
INSTR321
INSTR322
INSTR323
INSTR324
INSTR325
INSTR326
INSTR327
INSTR328
INSTR329
INSTR330
INSTR331
INSTR332
INSTR333
INSTR334
INSTR335
INSTR336
INSTR337
INSTR338
INSTR339
INSTR340
INSTR341
INSTR342
INSTR343
INSTR344
INSTR345
INSTR346
INSTR347
INSTR348
INSTR349
INSTR350
INSTR351
INSTR352
INSTR353
INSTR354
INSTR355
INSTR356
INSTR357
INSTR358
INSTR359
INSTR360
INSTR361
INSTR362
INSTR363
INSTR364
INSTR365
INSTR366
INSTR367
INSTR368
INSTR369
INSTR370
INSTR371
INSTR372
INSTR373
INSTR374
INSTR375
INSTR376
INSTR377
INSTR378
INSTR379
INSTR380
INSTR381
INSTR382
INSTR383
INSTR384
INSTR385
INSTR386
INSTR387
INSTR388
INSTR389
INSTR390
INSTR391
INSTR392
INSTR393
INSTR394
INSTR395
INSTR396
INSTR397
INSTR398
INSTR399
INSTR400
INSTR401
INSTR402
INSTR403
INSTR404
INSTR405
INSTR406
INSTR407
INSTR408
INSTR409
INSTR410
INSTR411
INSTR412
INSTR413
INSTR414
INSTR415
INSTR416
INSTR417
INSTR418
INSTR419
INSTR420
INSTR421
INSTR422
INSTR423
INSTR424
INSTR425
INSTR426
INSTR427
INSTR428
INSTR429
INSTR430
INSTR431
INSTR432
INSTR433
INSTR434
INSTR435
INSTR436
INSTR437
INSTR438
INSTR439
INSTR440
INSTR441
INSTR442
INSTR443
INSTR444
INSTR445
INSTR446
INSTR447
INSTR448
INSTR449
INSTR450
INSTR451
INSTR452
INSTR453
INSTR454
INSTR455
INSTR456
INSTR457
INSTR458
INSTR459
INSTR460
INSTR461
INSTR462
INSTR463
INSTR464
INSTR465
INSTR466
INSTR467
INSTR468
INSTR469
INSTR470
INSTR471
INSTR472
INSTR473
INSTR474
INSTR475
INSTR476
INSTR477
INSTR478
INSTR479
INSTR480
INSTR481
INSTR482
INSTR483
INSTR484
INSTR485
INSTR486
INSTR487
INSTR488
INSTR489
INSTR490
INSTR491
INSTR492
INSTR493
INSTR494
INSTR495
INSTR496
INSTR497
INSTR498
INSTR499
INSTR500
INSTR501
INSTR502
INSTR503
INSTR504
INSTR505
INSTR506
INSTR507
INSTR508
INSTR509
INSTR510
INSTR511
INSTR512
INSTR513
INSTR514
INSTR515
INSTR516
INSTR517
INSTR518
INSTR519
INSTR520
INSTR521
INSTR522
INSTR523
INSTR524
INSTR525
INSTR526
INSTR527
INSTR528
INSTR529
INSTR530
INSTR531
INSTR532
INSTR533
INSTR534
INSTR535
INSTR536
INSTR537
INSTR538
INSTR539
INSTR540
INSTR541
INSTR542
INSTR543
INSTR544
INSTR545
INSTR546
INSTR547
INSTR548
INSTR549
INSTR550
INSTR551
INSTR552
INSTR553
INSTR554
INSTR555
INSTR556
INSTR557
INSTR558
INSTR559
INSTR560
INSTR561
INSTR562
INSTR563
INSTR564
INSTR565
INSTR566
INSTR567
INSTR568
INSTR569
INSTR570
INSTR571
INSTR572
INSTR573
INSTR574
INSTR575
INSTR576
INSTR577
INSTR578
INSTR579
INSTR580
INSTR581
INSTR582
INSTR583
INSTR584
INSTR585
INSTR586
INSTR587
INSTR588
INSTR589
INSTR590
INSTR591
INSTR592
INSTR593
INSTR594
INSTR595
INSTR596
INSTR597
INSTR598
INSTR599
INSTR600
INSTR601
INSTR602
INSTR603
INSTR604
INSTR605
INSTR606
INSTR607
INSTR608
INSTR609
INSTR610
INSTR611
INSTR612
INSTR613
INSTR614
INSTR615
INSTR616
INSTR617
INSTR618
INSTR619
INSTR620
INSTR621
INSTR622
INSTR623
INSTR624
INSTR625
INSTR626
INSTR627
INSTR628
INSTR629
INSTR630
INSTR631
INSTR632
INSTR633
INSTR634
INSTR635
INSTR636
INSTR637
INSTR638
INSTR639
INSTR640
INSTR641
INSTR642
INSTR643
INSTR644
INSTR645
INSTR646
INSTR647
INSTR648
INSTR649
INSTR650
INSTR651
INSTR652
INSTR653
INSTR654
INSTR655
INSTR656
INSTR657
INSTR658
INSTR659
INSTR660
INSTR661
INSTR662
INSTR663
INSTR664
INSTR665
INSTR666
INSTR667
INSTR668
INSTR669
INSTR670
INSTR671
INSTR672
INSTR673
INSTR674
INSTR675
INSTR676
INSTR677
INSTR678
INSTR679
INSTR680
INSTR681
INSTR682
INSTR683
INSTR684
INSTR685
INSTR686
INSTR687
INSTR688
INSTR689
INSTR690
INSTR691
INSTR692
INSTR693
INSTR694
INSTR695
INSTR696
INSTR697
INSTR698
INSTR699
INSTR700
INSTR701
INSTR702
INSTR703
INSTR704
INSTR705
INSTR706
INSTR707
INSTR708
INSTR709
INSTR710
INSTR711
INSTR712
INSTR713
INSTR714
INSTR715
INSTR716
INSTR717
INSTR718
INSTR719
INSTR720
INSTR721
INSTR722
INSTR723
INSTR724
INSTR725
INSTR726
INSTR727
INSTR728
INSTR729
INSTR730
INSTR731
INSTR732
INSTR733
INSTR734
INSTR735
INSTR736
INSTR737
INSTR738
INSTR739
INSTR740
INSTR741
INSTR742
INSTR743
INSTR744
INSTR745
INSTR746
INSTR747
INSTR748
INSTR749
INSTR750
INSTR751
INSTR752
INSTR753
INSTR754
INSTR755
INSTR756
INSTR757
INSTR758
INSTR759
INSTR760
INSTR761
INSTR762
INSTR763
INSTR764
INSTR765
INSTR766
INSTR767
INSTR768
INSTR769
INSTR770
INSTR771
INSTR772
INSTR773
INSTR774
INSTR775
INSTR776
INSTR777
INSTR778
INSTR779
INSTR780
INSTR781
INSTR782
INSTR783
INSTR784
INSTR785
INSTR786
INSTR787
INSTR788
INSTR789
INSTR790
INSTR791
INSTR792
INSTR793
INSTR794
INSTR795
INSTR796
INSTR797
INSTR798
INSTR799
INSTR800
INSTR801
INSTR802
INSTR803
INSTR804
INSTR805
INSTR806
INSTR807
INSTR808
INSTR809
INSTR810
INSTR811
INSTR812
INSTR813
INSTR814
INSTR815
INSTR816
INSTR817
INSTR818
INSTR819
INSTR820
INSTR821
INSTR822
INSTR823
INSTR824
INSTR825
INSTR826
INSTR827
INSTR828
INSTR829
INSTR830
INSTR831
INSTR832
INSTR833
INSTR834
INSTR835
INSTR836
INSTR837
INSTR838
INSTR839
INSTR840
INSTR841
INSTR842
INSTR843
INSTR844
INSTR845
INSTR846
INSTR847
INSTR848
INSTR849
INSTR850
INSTR851
INSTR852
INSTR853
INSTR854
INSTR855
INSTR856
INSTR857
INSTR858
INSTR859
INSTR860
INSTR861
INSTR862
INSTR863
INSTR864
INSTR865
INSTR866
INSTR867
INSTR868
INSTR869
INSTR870
INSTR871
INSTR872
INSTR873
INSTR874
INSTR875
INSTR876
INSTR877
INSTR878
INSTR879
INSTR880
INSTR881
INSTR882
INSTR883
INSTR884
INSTR885
INSTR886
INSTR887
INSTR888
INSTR889
INSTR890
INSTR891
INSTR892
INSTR893
INSTR894
INSTR895
INSTR896
INSTR897
INSTR898
INSTR899
INSTR900
INSTR901
INSTR902
INSTR903
INSTR904
INSTR905
INSTR906
INSTR907
INSTR908
INSTR909
INSTR910
INSTR911
INSTR912
INSTR913
INSTR914
INSTR915
INSTR916
INSTR917
INSTR918
INSTR919
INSTR920
INSTR921
INSTR922
INSTR923
INSTR924
INSTR925
INSTR926
INSTR927
INSTR928
INSTR929
INSTR930
INSTR931
INSTR932
INSTR933
INSTR934
INSTR935
INSTR936
INSTR937
INSTR938
INSTR939
INSTR940
INSTR941
INSTR942
INSTR943
INSTR944
INSTR945
INSTR946
INSTR947
INSTR948
INSTR949
INSTR950
INSTR951
INSTR952
INSTR953
INSTR954
INSTR955
INSTR956
INSTR957
INSTR958
INSTR959
INSTR960
INSTR961
INSTR962
INSTR963
INSTR964
INSTR965
INSTR966
INSTR967
INSTR968
INSTR969
INSTR970
INSTR971
INSTR972
INSTR973
INSTR974
INSTR975
INSTR976
INSTR977
INSTR978
INSTR979
INSTR980
INSTR981
INSTR982
INSTR983
INSTR984
INSTR985
INSTR986
INSTR987
INSTR988
INSTR989
INSTR990
INSTR991
INSTR992
INSTR993
INSTR994
INSTR995
INSTR996
INSTR997
INSTR998
INSTR999
INSTR1000
INSTR1001
INSTR1002
INSTR1003
INSTR1004
INSTR1005
INSTR1006
INSTR1007
INSTR1008
INSTR1009
INSTR1010
INSTR1011
INSTR1012
INSTR1013
INSTR1014
INSTR1015
INSTR1016
INSTR1017
INSTR1018
INSTR1019
INSTR1020
INSTR1021
INSTR1022
INSTR1023
INSTR1024
!
"
#
$
%
&
'
(
)
*
+
-
.
/
0
1
2
3
4
5
6
7
8
9
:
;
<
=
>
?
@
[
\
]
^
_
`
a
b
c
d
e
f
g
h
i
j
k
l
m
n
o
p
q
r
s
t
u
v
w
x
y
z
{
|
}
~
©
®
°
–
—
─
☀
⬀
ⰰ
⼀
㸀
䔀
䴀
嬀
崀
开
搀
欀
笀
紀
##1
##0
##3
##a
##9
##5
##4
##7
##c
##b
##f
##d
##8
##e
##2
##6
##n
##s
##t
##r
##w
##i
##m
##o
##u
##l
##p
##y
##k
##g
##x
##j
##h
##z
##v
##q
##°
##⼀
##®
##©
##☀
##ov
mov
##ax
##tr
rax
rb
rd
##or
##ar
rs
##al
##str
in
rbp
rdi
##8h
##all
var
call
r1
rsp
instr
##ff
##ea
##mp
lea
eax
##cx
sh
##ort
##st
##00
short
rbx
##in
rsi
rdx
ptr
##0h
##si
ed
##mm
##ord
##et
xmm
##er
rcx
##at
##word
cmp
jmp
jz
ch
##on
##is
##ffff
##dd
##ub
##us
##est
th
edx
sub
esi
add
instr1
r12
test
r14
this
##op
st
##ing
##ush
##le
char
push
xor
cs
r15
##te
qword
r13
al
ecx
##en
jn
##ec
pop
xmm0
jnz
##oc
std
##it
##0000
instr2
str
movs
edi
r8
##ator
dword
##nd
eb
##as
##es
10h
##ch
##string
##ed
##ra
##id
##ion
instr3
##el
##me
28h
##set
un
##ac
##ffffffff
##an
##re
off
op
##yte
instr4
offset
byte
##ul
##64
##od
##ap
##loc
xmm1
r9
##ut
##ce
##yp
##tion
18h
string
##erator
##il
##ab
instr5
10
ebx
##ag
ret
int
movsd
operator
##11
20h
##ol
##un
alloc
tra
ba
ebp
##sic
##ro
##ent
##ype
r8d
##its
basic
ar
0ffffffff
##li
allocator
cx
40
##ect
##std
con
##oid
get
##up
##ame
traits
retn
0a
##ile
##im
of
set
##zx
movzx
instr6
void
##int
fs
##ata
##ack
##sd
movsx
##ind
de
##gn
instr7
##able
end
charstd
cxx
18
##ic
type
##ex
and
14
co
##ate
##og
##c8h
##b8h
as
11
20
arg
instr8
##ead
cxx11
58h
##ase
##d8h
12
##tk
##rr
##ree
##ew
48h
68h
qstring
loc
xmmword
##ow
r12d
##00000000
cl
15
38h
movsxd
48
re
##se
##e8h
38
##br
instr9
##sign
fa
30h
##ode
chk
or
78h
ex
13
si
58
dc
endbr
endbr64
28
0ffffffffh
##ser
##f8h
##ue
r9d
r14d
88h
##ob
##eam
##pr
err
##ot
##10
ofstring
##ge
30
##signed
##pl
50
##get
pr
##am
##ur
xmm2
##ze
##40
##age
##th
##um
stack
##20
sr
98h
movap
instr10
##tex
##table
ac
##60
r13d
unsigned
del
##ig
r15d
##ject
##iv
##30
##ass
r10
##wind
0a8h
fail
##ete
##50
##ump
##ps
##om
68
##ast
##70
##ray
##ss
19
res
val
delete
##con
##ess
name
##ir
instr12
file
wx
##ct
log
jump
60
dcm
##ist
##data
bu
##bu
16
##err
free
instr11
##fh
##48h
##em
gtk
0b8h
cm
##ine
##unt
movup
40h
##and
##4h
new
movss
##78h
##ation
##intf
instr13
000000000
jumptable
##ecl
word
0c8h
##78
##90
##ult
av
ap
unwind
##de
error
##ffffff
lock
shl
##ey
movups
case
nop
size
an
##eck
ds
0d8h
instr14
##dq
jle
88
##array
##18
##read
##name
##text
78
int64
##val
par
70
##cep
instr15
##alloc
##000h
inst
##28
##a8h
ax
jb
data
b8
def
bo
##end
xmm3
##38
##list
##98
##68
for
instr18
to
##ception
cmov
##b0
0e8h
len
##ance
im
check
r11
movaps
src
0ch
aj
##ite
##58
80
##48
##c0
sc
##eh
at
##a0
##vt
tmp
##fo
##uct
##d0
##f0
##ter
##stream
exception
mul
##e0
##qu
##mpl
bas
##ve
ob
##58h
##ad
##33
pro
en
instance
50h
instr17
##eclass
id
baseclass
##ector
cvt
##28h
##os
unk
##ext
##18h
count
instr20
list
instr16
value
##ay
0f8h
0b
##arraydata
##bo
qarraydata
instr19
##ime
is
##printf
##ain
##f8
##ver
sp
98
##file
##68h
##ip
108h
gl
##00h
##38h
##unc
##ian
##ity
##art
##co
cast
118h
dest
##66
##idget
stream
0000000000
##b8
##fig
##ment
jg
##98h
##sert
instr22
##if
ad
shr
se
xmm4
##ix
##a8
90
##ptr
ja
##object
sar
41
##c8
##len
##atch
##pd
##po
instr21
db
##ull
key
##e8
24
a0
##sl
##sg
object
out
imul
instr24
dl
##dh
instr28
128h
##f0h
##ath
##vel
##char
##uth
##vi
##ition
##ared
##d8
0ffffffffffffff
##ume
struct
60h
##rea
##ost
buf
##ault
s1
instr25
sa
instr23
conn
##ial
py
##ection
##ref
0ah
138h
##2h
148h
line
a8
func
vector
mulsd
##ong
instr27
bl
mem
##try
thread
0c
dat
resume
shared
impl
##rom
##99
##dition
movapd
##essage
instr30
##var
##eta
jbe
fl
wxstring
##sion
##eg
##ace
##22
##iant
##kt
##put
dealloc
##for
##error
##ffer
col
##out
17
##cp
43
xmm5
##ang
##reate
##ok
stat
instr26
##psg
movdq
##1h
dis
##ory
qm
##gth
##par
##bug
##0000000h
instr29
##sc
mod
45
default
##info
tree
text
sge
deallocate
inc
##of
168h
instr38
##ib
##variant
##per
ct
##24
us
r10d
158h
##ted
ostream
instr31
config
dec
00000000000
##our
70h
##add
fw
asc
js
##32
44
instr34
b0
##74
cdq
##lib
t0
insert
178h
read
base
80h
le
proj
instr35
app
1c
c8
##inter
addsd
##ml
##act
sy
os
not
param
##ger
##ffffffffh
0ffffffffffffffffh
##eter
##com
42
do
##rite
sq
create
sim
instr40
px
##ph
instr32
##elf
ab
xmm6
##ah
##nz
am
##key
##tre
1b
##lock
##sh
##tag
comm
##ty
node
ind
##2sd
anon
message
av2
##12
##4c
instr33
c0
1c8h
qvariant
wkt
##mat
0ff
xorps
start
##tem
from
##row
188h
length
00000000h
22
##ence
instr37
srs
ag
##lement
0ffffff
##65
##sp
##ore
d8
##14
##13
lim
pxor
##iz
wchar
##cmp
cdqe
instr39
##19
s2
mode
item
100
printf
##mon
self
fprintf
dbus
scr
##d0h
##16
gen
buffer
##uthor
##ild
##ht
save
ne
##00000
path
simtk
##uble
cxa
##55
##3h
##item
cvtsi
dcmtag
fd
msg
jnb
##ure
init
jge
##cc
xmm7
instr48
##ule
instr44
##ases
hel
pol
##mt
##comis
ucomis
po
##cpy
##und
1000h
jl
comp
ofcon
##buf
div
##72
instr36
connection
##indow
198h
108
d0
##ard
qlist
##ck
##ann
##34
##urr
##fl
level
ref
14h
##size
instr50
instr42
##widget
r11d
cases
1d8h
window
it
##9h
limit
instr45
e8
##ive
##mb
##e0h
glib
##80
##roup
##cl
widget
ofcondition
pyx
rmon
##db
null
mu
inter
pl
##value
epsg
##type
21
num
long
lf
##io
index
movdqa
ajstr
##94
usage
1a8h
##ash
##typ
34
e0
af
##node
dr
##15
result
##iled
##63
##75
##ialog
glob
append
25
f8
1a
1b8h
90h
##thread
##ton
##6h
pa
1e8h
##line
##valid
helper
hand
##ns
info
##nt
##aim
##uthority
##eader
instr43
##ource
double
##25
bool
##eclaim
1548h
reclaim
no
##oper
##dat
##box
instr54
cli
##pt
filename
##port
##cr
0f
sign
##bh
##0000000000000
##69
instr58
##utton
00h
3c
##iter
vi
on
##map
##mod
instr49
ev
##no
##orth
throw
max
##aa
##7h
0fffffffffffffff0h
##quence
128
stderr
boost
208h
box
##abel
2c
##gs
instr60
##ument
scratch
##ach
instr47
##ies
instr55
##apl
##plus
##cs
dcmtk
##ovim
##irst
00000000004
##urrent
neovim
##62
option
##17
118
datapl
dataplus
##4cplus
log4cplus
##col
state
cmovz
110
instr64
1f8h
##ep
##ber
##35
sl
movq
##fs
f0
class
##ames
args
context
instr52
tin
function
ucomisd
##oad
deta
##vice
ser
##ight
pthread
lib
##ting
##67
cap
##eas
flag
##ask
0fh
218h
kj
##play
##struct
##ato
mutex
t2
map
ma
##ont
tr
##base
format
##lic
228h
strlen
##debug
bpl
pre
##arn
##level
##2c
##sertion
##own
0ffh
ver
strcmp
##pp
instr68
t3
##be
##index
setz
instr59
##to
##dc
##erm
4c
##lear
23
##ba
subsd
instr57
##54
assertion
pair
138
pic
0a0h
##byte
##sy
dir
##tp
##wit
cvtsi2sd
##econ
instr53
##view
##reen
##ef
status
gn
##sim
kpl
opt
##ook
##qt
0bh
signal
entry
table
t1
ge
setnz
array
put
##fd
current
write
##61
instr70
##000
##entry
reg
cur
##ose
globus
malloc
rec
axis
qobject
100h
ctx
27
000000000040
120
240000000000000
##ude
pos
unref
debug
##ell
qd
##ized
##ark
##ateg
##window
detail
##5h
##enc
##23
##mpz
view
kplato
instr65
qt
##tri
1f
##77
0b0h
##comm
beg
cont
gnu
##omain
fil
##ler
##quest
##opt
time
tim
sil
148
clear
##local
##one
##count
##urn
instr41
parameter
qu
##44
ut
##dup
1ch
instr69
0fffffff
##stat
instr62
instr63
instr78
user
##ust
0eh
xd
##ivate
##arg
##ategory
##ction
##sd2
##mpp
leave
##lite
##enu
238h
##action
first
258h
248h
##reg
##geo
sele
##bb
dispo
130
##ld
##ession
##her
instr74
instr80
##que
rep
140
268h
intern
##79
##73
if
label
##num
54
failed
domain
0dh
header
neovimqt
158
proc
instr46
0c0h
##sub
##alse
##29
ustring
##path
##ken
rel
addr
last
iter
tag
memcpy
ossim
##ifi
tinf
com
##param
find
stru
##39
##stem
instr75
29
##hs
gene
64
##arning
ah
0d
##anag
##orm
the
strdup
##iel
885
dispose
xml
divsd
connect
color
##witch
##ainer
150
##mf
278h
client
low
##ody
logger
##raph
open
##27
##cod
instr51
xadd
block
##pck
category
slot
##rame
##ange
conver
cp
instr79
5c
handle
ain
288h
##res
cvtt
##operty
aw
198
##ield
##form
instr88
wid
pack
160
instr84
output
construct
movdqu
##ich
168
cmovnz
##opy
north
return
0e
ec
##app
##option
##umn
instr56
##71
##fa
2b8h
assert
event
##ee
##call
##mo
##icy
##slang
instr90
##ale
##raw
##upt
##etaobject
qdebug
##53
pan
##21
act
poly
##ino
parent
switch
glibc
##ret
##ink
next
##rs
##config
timer
hash
##ient
obj
instr73
east
glslang
178
1fh
##76
mulss
gu
2a8h
##are
##lem
cvtss
cvtss2sd
##ud
button
argv
##sa
0d0h
unit
##anager
iterator
common
##ug
interr
xmpp
##59
job
2c8h
0f0h
##ise
ro
repl
298h
instr61
retstr
1d
##mov
49
##ai
osgeo
policy
interrupt
instr94
##pack
##ev
##eb
instr89
##26
84
send
action
instr98
##def
88548h
addss
##ock
1b8
##31
r12b
##np
##rc
apro
sqlite
##ish
##fc
##tree
##ork
##tings
##sition
ur
instr100
##ocument
ep
print
instr66
##toc
##mple
##izedstring
##group
##sequence
##52
##bc
klocal
sig
##tor
188
klocalizedstring
source
24h
mer
##eth
##ith
##trix
a1
##sw
##56
fin
fmpz
dx
##51
display
warning
##oy
##code
170
##ary
##command
##10h
instr67
##tent
build
trans
aun
190
alow
main
dev
location
##fe
##ii
##oat
r14b
##tribu
tmpst
##siz
drt
invalid
##seq
##epsg
te
yy
##ormal
hook
180
xmm8
1b0
1c8
dialog
##tern
##typeas
lat
alowlevel
alowleveltypeas
container
16h
##84
##arget
ra
xdmf
##exp
##37
prev
min
command
sch
##eat
aerror
##ache
##tribute
##del
exp
instr72
condition
seq
6c
1a8
##new
locret
flags
##aser
ht
##pckl
instr71
220
##xy
1c0
##gettext
26
2ch
back
group
##36
sprintf
gd
##42
instr111
##back
##fb
##ft
code
aa
200
errno
##da
begin
module
instr99
##itude
##ues
instr110
##stroy
instr108
##lication
##eight
laser
input
47
##f4
##3333
##itle
domainname
des
74
setn
##abled
attr
##annel
##boy
laserboy
row
##nown
instr77
##ayer
instr76
##e4
##gr
0e0h
sqlite3
##tran
000000000000
39
##ant
46
nptr
2d8h
el
##arch
##ify
##dir
##nc
model
sql
pref
2e8h
image
show
2a
##ke
##long
r13b
##point
term
filter
##pro
instr104
ps
sm
instr85
dil
##anc
##flag
32
##88
vtable
##91
aproj
##open
acc
instr83
load
instr81
panic
##83
cmd
dcmtagkey
parse
##url
##ound
acon
instr82
mac
##ifier
r15b
1a0
##lat
##ign
##annot
dino
qdom
di
bad
##check
with
##null
##sd2si
cvttsd2si
gettext
##buffer
##ram
##df
0ffff
jns
fix
2b
4a
instr86
copy
##mem
fp
##uld
3fh
column
##pointer
sn
jpt
##d4
dsr
35
neg
##message
exit
mp
instr120
3a
##ery
##2ss
##ran
qmetaobject
##stack
##6666
cvtsi2ss
wh
capnp
##emon
##30h
element
xmm9
fast
##icon
##aster
##reenw
##sb
##ipopt
allocate
frame
##gen
##sor
simtkipopt
##ique
##ech
318h
##log
me
##fer
upd
instr95
##essag
##ail
1d8
instr109
instr114
options
1e8
##ide
##sq
draw
##ease
instr87
31
instr92
##let
pun
##ean
range
r8b
##3d
auth
real
qwidget
##yle
##mpty
1d0
normal
##private
##vector
##exit
##not
##max
target
##state
authority
3ch
##etime
datum
1f0
instr118
##min
64h
close
##96
idx
n1
3e8h
replace
##ethod
1eh
348h
instr93
instr91
io
instr130
##ly
property
be
##ca
token
xorpd
##element
1f8
##pos
lget
218
destroy
field
tstd
##ated
##ten
##2core
instr96
##cm
##ayout
host
##xml
##57
setle
36
##trol
number
##unsigned
width
2f8h
##aset
tmpfs
##abase
12h
##2d
2f
##comp
##ys
select
net
menu
##iteral
dcgettext
strc
##old
##ister
1e0
7c
##iss
instr97
##av
308h
vec
h2core
328h
##reenwich
##nam
##stdata
##ific
rol
t4
##authority
orient
##ected
instr101
qdomnode
208
120h
##95
instr124
1e
aco
all
qtext
##dr
macro
##fmt
##92
bc
338h
counter
cb
##ui
##gal
##off
##enter
apr
lp
ui
368h
literal
json
instr102
finish
server
##types
page
##6c
xmm10
instr103
guard
##fil
sk
4b
handler
alib
old
pool
builder
##font
endptr
1558h
instr128
34h
##color
punpckl
ast
task
device
##format
release
settings
##asec
instr107
238
##3c
instr105
top
3b
cache
##spec
const
request
qli
##pon
##itor
jp
cr
##20h
instr140
dv
gdk
##stract
assign
tool
##face
instr106
qlistdata
##msg
##97
##conn
oper
orientation
nc
temp
228
##button
atmp
400h
200h
11h
51
##ma
##api
##anged
prime
remov
##crip
##har
sys
cmovle
typeinfo
##gle
##asc
##obj
##image
3d
##default
##ome
##chg
fixed
names
##eric
##aemon
fwrite
##work
instr113
matrix
exec
##context
pix
210
version
2400000000000002h
wr
has
arch
instr134
mark
instr138
orig
59
3d8h
instr112
ass
##impl
##xt
dk
qtextstream
##lient
##pa
title
##f5
static
root
388h
248
gr
session
##cb
##ther
##bytearray
xio
instr116
lin
240
ios
instr115
63
##commandline
110h
bd
##from
instr119
##ugin
##asecmp
##1b
##parameter
##axis
adb
37
##scr
instr117
##49
##func
instr150
xchg
##inst
catch
stor
ucomiss
full
qmap
##fffffffh
##0000h
##ender
##iable
parser
##ual
##idian
xmm11
are
lpt
##wn
##47
bit
pd
match
lptinfo
##uid
230
##ascii
srid
##sizer
can
cf
##order
qbytearray
##actor
2fh
dic
##2b
xt
qurl
instr123
##dl
converted
expr
instr121
ses
358h
##coded
##phy
##east
##econd
4d
##model
mexit
sbb
##ad83
cc
##mer
258
register
##time
rc
instr122
child
unlock
##1c
instr129
##mbol
9c
fc
44h
instr160
33
##bar
instr125
2d
##gs84
##ese
setl
fastcall
3f
vol
398h
fromascii
##af
icon
local
##verse
instr164
pt
instr148
per
rhs
libs
##gree
memory
##oo
##5c
sample
##a4
ip
378h
channel
##ize
strcpy
spec
dp
instr144
pi
##entr
position
##manager
instr127
snprintf
##iver
decode
update
idiv
tv
##93
qtprivate
4e
system
unique
instr126
3a8h
##tochar
##7c
content
lu
argc
##rt
false
r9b
##edi
pat
instr158
##upport
convertedtochar
##datetime
##50h
##chr
fmt
thrown
font
##oi
##enabled
raise
bt
il
ak
##ipt
##ative
movupd
##ick
##001
conf
lhs
##inate
su
##pace
instr131
ctype
##hand
other
instr168
##ms
##length
graph
layer
spher
##uration
6e
util
428h
vm
260
111
instr135
278
instr132
own
instr133
##ng
meridian
##isd
##legal
140h
##odel
params
bytes
##izer
##ourc
ath
bf
##hash
xmm12
##dialog
realloc
left
ph
##codedentry
##request
13h
ld
ach
ajlist
##70h
instr136
8c
##ert
msgpack
0fffffffeh
my
250
tp
##ices
reader
##tok
instr154
##ities
##system
instr170
mult
float
##ls
strn
instr137
instr178
cmovg
aus
##load
gai
esl
##untime
ident
268
uri
##6b
##andard
cvtsd2
cvtsd2ss
games
##60h
##ank
subss
94
##stringstream
##eno
height
##ident
pc
##ogger
##dis
instr139
dim
stdout
values
##free
##qual
fre
attribute
dst
##match
qicon
##proc
3b8h
418
gp
t5
point
418h
##6f
0fffffffffffffff
##ero
compare
method
408h
##gc
##41
fwdata
##etch
##9b
up
instr143
220h
instr141
comisd
greenwich
##swer
##bl
130h
##9c
use
body
270
instr180
##unted
instr142
sec
remove
##3f
0fffh
408
internal
xmm13
smart
strcasecmp
memset
##6e
variable
##a0h
yam
##teger
91
instr145
4a8h
ofcommandline
illegal
once
priv
##lection
proj4
instr147
##parser
cal
##d2
qmon
que
tran
##ux
ajfmt
##a1
storage
proj4text
##range
dy
sock
##short
thys
projection
bs
document
##aptor
padd
lc
style
mon
ent
instr149
##close
##mode
instr146
##b4
##oll
##ename
##erenc
##trl
3e
qaction
pp
answer
mat
280
4c8h
##body
a4
##icken
ostringstream
ajstrdel
##aaaa
##sit
active
counted
drttypes
508h
port
410
##ponse
61
##flags
##40h
part
2eh
instr151
##gment
manager
instr152
instr190
##bd
application
instr155
store
aut
pass
by
instr153
##a2
##dev
##etype
instr198
prefix
second
##ble
##ute
55
a2
##mit
ae
cout
##ority
##sid
##wr
##by
##unar
##ave
##raphic
##45
fput
instr156
access
define
##filename
xmm14
wo
##d5
##f2
tostring
##bit
##class
298
458h
strerror
##exception
setnbe
##46
170h
##ouble
##any
qdatetime
search
cannot
478h
instr159
##lo
5ch
##ress
67
##ectory
##oggle
adbus
##ktop
gmpz
288
global
env
callback
instr157
less
instr188
ly
##dbus
##ox
##wd
##init
head
##over
typ
tup
3f8h
##print
1bh
afa
win
xp
##bytes
##event
over
22h
##start
locale
##write
http
##3b
##ool
msa
qp
498h
valid
mask
2dh
latitude
gap
report
##float
##memb
##110
160h
4ch
blockp
namespace
##owgs84
found
instr162
##job
81
instr161
15h
ephy
2a8
##gui
queue
descrip
unknown
argument
##intern
link
instr165
##uction
so
##igh
instr166
290
##ched
##ema
##dec
##f1
akey
instr163
##use
movd
##essagel
stk
32h
##atom
mm
##abstract
record
69
plugin
geog
62
afailed
c4
process
instr200
neovimapi
##iterator
lam
##80h
errnum
##conf
438h
##module
instr167
ossimstring
57
dw
doc
##otal
##cur
##mark
448h
##econdition
420
488h
##ne
##zy
##43
ainvalid
api
origin
##rec
150h
qmessagel
address
qmessagelogger
468h
3c8h
instr169
att
##sk
gc
sigc
initial
52
19h
##iler
elem
4d8h
run
2e
xmm15
instr210
##901
##b0h
control
##lob
instr211
##unk
17h
instr171
pointer
##lect
##3a
prop
##menu
458
##bool
qr
bp
spheroid
##trans
300
terminate
instr173
##d1
##ner
right
url
packet
##2x
##son
instr172
##slot
##the
resource
xm
72
daemon
t3widget
##ages
##esequence
1d0h
qabstract
##const
##mous
instr174
sv
##der
##uf
##namic
instr177
##assign
wxu
operation
make
scale
instr208
71
##tol
528h
instr218
instr176
##false
65
empty
##date
54h
##ffh
##irt
zone
query
instr175
atom
##qvariant
lyx
180h
1ah
448
##ced
438
0fffffffffffffff8h
screen
0ffffh
##980
##attr
2c8
##ookup
fn
post
##attribute
25h
thecondition
clang
##in1
ns
##basic
##ae
##qdq
acl
instr181
2b8
instr220
##ower
nmemb
2a0
punpcklqdq
instr179
##idth
mo
##onent
marker
##version
metre
##outof
##issing
wxwindow
428
northing
##opert
bin
##f3
##filter
##90h
instr184
##6d
##omp
21h
menter
##ingle
er
instr183
53
flush
ase
##ymous
538h
##ablet
clos
##utf8
instr182
align
instr185
lo
aba
instr189
##document
##idx
5b
##block
##e2
instr186
##cont
75
instr187
easting
pand
df
##odes
instr228
pstr
bits
anonymous
qfile
##erence
##ce0
##tension
4b8h
sequence
kr
toggle
##layout
##amp
##exec
instr230
rece
190h
##hel
##simb
##edes
2b0
private
##reezy
variant
extr
##di
##atial
##airo
proxy
##00000h
4f
##basiccodedentry
pattern
##server
cairo
instr191
ssl
pub
##eed
feat
degree
##atal
##eve
400
abasic
0x
aepsg
dcmlong
##sql
instr194
kconfig
518h
##label
grid
ajdebug
##operties
##00000000000002h
##melement
##top
##ios
note
##input
4e8h
##sr
##atile
cmovl
dep
instr192
game
5d
pe
instr193
imp
project
5a
spar
instr195
symbol
aconst
2c0
volatile
pw
##199
2d8
##umm
could
##so
##ait
service
##ified
nad83
##2f
unable
org
atmpfs
cursor
##cator
##arf
2e8
smartptr
430
##des
altern
prog
thunar
abasicstring
4f8h
##net
ai
##function
intunsigned
##cted
enter
##kr
instr197
support
##usi
instr240
fill
incl
va
instr238
compiler
instr248
##gine
instr233
bind
pm
psub
mprintf
factor
##esh
##database
300000000000002h
##ict
instr199
7b
instr196
timeout
coord
##sible
ens
puts
##ovo
t6
##1a
##tocol
sin
tins
##745
ajfmtprintf
440
qst
##round
##lice
dcmlongstring
##instance
utf8
qchar
0ffffffffffff
43h
archive
li
bot
##ined
##append
instr201
##bi
79
##query
runtime
##ulk
msgpackrequest
date
##ere
2f8
##c0h
##f7
##entral
##ical
##field
578h
dataset
section
br
##scan
sqrt
asy
##ates
instr203
psh
aprojcs
##ill
##internal
raw
fault
dynamic
tm
##build
##older
##memory
cmova
##e5
alternative
instr202
instr205
7fffffffh
##cor
anorth
instr204
##env
divss
##frame
##be0
cmovb
308
##6a
ws
##values
instr206
instr209
318
pshu
##cept
##acc
7fh
imap
##position
548h
mail
##e1
lookup
##auth
projcs
450
##dp
web
sort
isenabled
##offset
##ings
cor
database
grs
meta
spv
instr250
##elist
ay
3ah
6b
##elet
instr207
instr217
##host
go
gsl
help
oss
6ch
tab
##tpm
598h
need
ajstrget
##property
##edit
selection
85
##unit
gener
ajstrassign
instr215
##identifier
fclose
isenabledfor
instr213
##options
rest
dwarf
instr214
instr212
instr258
forced
##ener
vptr
##e9
cerr
82
1c0h
##number
dcmitem
constr
568h
3eh
##ensit
##user
##eek
##regator
sw
clust
##ists
##metaobject
emb
##als
setnle
wxsizer
##led
cfg
stringbuf
b4
338
##ulkovo
##ification
##create
164
##cat
ext
##329
widen
area
total
instr221
strchr
rand
sf
layout
lps
trace
##000000h
##codestring
##ker
delim
##f9
instr264
sched
##ply
instr219
dcmcodestring
regs
##sym
include
cpp
towgs84
instr216
7d
328
468
##oder
2d0
qhash
serial
sb
##win
##ou
##odec
##plit
arglist
1a0h
##cf
bound
instr222
##2si
##oft
instr224
##swap
##b1
req
23h
##ss2si
cvttss2si
instr223
##mpol
##serv
dup
##status
##header
##book
scm
cd
apar
instr225
oflist
hist
sender
order
##eme
56
##dcm
2e0
##ove
gaia
##token
instr227
zero
aeast
sz
##irtual
instr260
##link
##e3
104
##1st
##parse
##actory
socket
atmpf
##cd
intr
##xx
##valu
358
instr268
348
##etext
ko
##names
##bda
##easure
capi
staticmetaobject
rect
instr226
##b2
##a9
##istr
##page
qmaster
##08
instr270
cond
lpsrc
##udio
##icle
work
##ward
bif
478
statement
red
66
tuple
instr229
afile
endl
mercator
spatial
calloc
stringstream
##transl
ss
##trace
select1st
refcount
##latin1
illegalcall
##with
##settings
##pdf
ok
attach
##imal
##lps
##pc
segment
##d6
##width
##space
74h
##433
wxdefault
##ancel
pam
lang
##cked
ajseq
##b5
460
##lex
##310
##utm
cat
script
1dh
instr231
instr232
instr239
render
##imer
monitor
instr234
##180
##cursor
trampol
trampoline
##e7
##static
##33333333
##lin
edit
##za
isoc
andpd
description
instr278
big
##slotobject
nn
##ntax
aq
##a5
##ved
acannot
##output
non
clean
368
aunk
##la
350
pmax
plan
cmpsb
abort
xdmfarray
isoc99
repe
instr266
directory
0ffffffffffffffh
##main
310
470
##ope
akregator
##expected
drop
asr
##ulong
1b0h
instr235
##25199
instr242
strtol
instr236
411
xep
##0000000
01
##ending
##temp
##ape
29h
interface
##ixmap
qslotobject
##a7
##ift
83
lambda
0ffffffffffffffe0h
mime
strncmp
##eset
648h
instr237
5e8h
mw
wgs
pmaxub
##i18
dbg
qual
##ire
##ummy
bx
instr244
2ah
##olog
2f0
##esent
changed
instr241
gra
10000h
11c
hpdf
##aystack
##000000
optarg
658h
compl
##ea8h
##ameter
gpointer
bswap
perm
##zr
lon
dsrbasiccodedentry
588h
##200
##grid
##feat
instr246
pid
instr243
558h
##here
psubsb
6378
instr245
##f6
3f8
fromutf8
network
pri
move
haystack
instr247
##c1
##mn
##ations
##usive
jid
pyerr
##trieve
indent
instr280
acould
aglob
378
ash
320
##erences
##sol
##7b
cell
##sm
##connect
setup
dcmun
##next
390
pshufd
388
##asb
##fi
##resh
rule
##ider
##ek
800h
##aint
files
##writer
indexoutof
114
asd
##client
activ
amust
73
unpckl
instr254
330
##oom
ms
0c78h
fopen
0fffffffdh
connectimpl
fr
instr252
##ddata
wait
##align
stmt
##acter
pg
modes
##or1
stop
##280
##plan
488
one
##td
repne
instr249
##d9
scasb
antpm
##channel
##tend
360
##eleton
abstract
primem
##7e
##c4
cert
210h
398
ign
##activ
kconfiggroup
ellps
nil
##org
0fffffffffffff
340
##rap
dcmelement
qlite
instr256
ano
equal
lua
qkey
99
fb
1980
transfer
##ics
instr251
instr257
instr255
##fre
##edesktop
498
7ch
1f0h
instr259
writer
##fp
##5e
sscan
##tro
##utmz
instr290
##stringvalue
account
instr253
longqvariant
aunknown
##man
##e80
##rim
curr
##tt
##sis
##tool
schema
space
sscanf
mut
instr288
##ql
##d3
##alet
indexoutofrange
ts
verbo
which
atmpfslib
skip
fputc
5f8h
##child
properties
##380
gui
##helper
9122
628h
r10b
2bh
ofiterator
core
##used
configuration
##pckh
##quir
clients
##coord
d4
notify
acomm
simbody
instr298
##pha
lpd
central
##builder
##process
identity
instr261
4a8
gw
##eline
##application
##this
resol
missing
adaemon
##a3
bi
4c8
qkeysequence
generic
##745329
track
##merc
instr262
##cccc
##a6
atr
##matrix
##board
achicken
77
inf
##tod
##e6
##krell
##mplate
2000h
89
##iode
instr267
##sigc
gst
pip
protocol
3b8
instr263
trap
6a8h
2400000000000003h
##vert
##stype
fli
uint
instr265
dstring
enabled
amustbe0
stan
au
instr269
atmpfsd
##krellm
amustbe0or1
##export
##ermin
standard
n2
5f
##iodevice
##alette
transverse
##ctrl
##imag
combo
utm
##eapp
instr299
##5d
encod
inv
closure
setting
##b9
instr300
##210
crs
aclient
##100
raptor
##rect
##gl
##pan
##handler
fname
##kcs
la
##66666666
##invalid
##yd
##tip
maxlen
itc
shell
selected
##asm
##flush
##pair
intrusive
27h
##wh
desc
instr276
608h
##ilt
instr310
member
41h
##ta
got
daemons
##ous
tile
##sist
##left
##ses
fwr
7f
##queue
##640
rg
opend
instr275
##ived
longitude
book
ki18
instr271
final
##shared
##1d
##amer
strncpy
1e0h
strings
8901
gkrellm
reset
##gress
##slog
ais
##cap
##7f
none
instr274
3a8
##idd
qstringlist
##fds
qflags
##cryp
instr311
koxml
dict
5d8h
retrieve
instr272
##files
slice
only
##tl
3c0
##down
##method
##9e
dpy
##flow
instr273
##25199433
erase
##json
##igger
html
##expr
uid
3d8
cmovge
e4
3dh
##theory
##update
car
##cal
##imp
##argument
370
response
integer
##control
##cb50
gap0
##ology
##part
geographic
##integer
aunablet
##mask
stanza
380
instruction
##geome
480
##crec
pars
must
##decimal
##5b
b1
instr279
man
chicken
instr284
instr318
##480
##ution
##dataset
instr277
master
##bytestring
instr281
##addr
mid
vp
bus
pret
convert
dcmbytestring
##o2
player
gv
##fr
3c8
ajlistiter
avoid
##licit
##isplay
instr285
scan
##util
##elem
quark
breezy
##failed
##3e
sur
##inv
instr308
##11h
detach
t7
instr282
export
sparp
5a8h
comiss
##7a
vertex
prom
dfsg
##ensitive
##pped
ajstrnew
##changed
verbose
##enview
enum
instr320
##master
mutate
instr283
##pher
##ping
instr287
80000000h
mpd
##ging
high
##2a
##rep
true
##ice
ise
##sum
aval
txt
ga
cmovns
##fffffffffffffffh
too
shad
2false
##inglet
mulpd
asi
##pol
cmovbe
##1f
6d
##5a
##items
graphtheory
instr292
f4
##just
nm
a3
4b0
where
instr289
2falsefalse
tail
##odule
##de0
##eto
aht
inx
mailbox
exists
instr286
##nb
thetext
##cket
##obox
##eak
gs
##crecpp
pcrecpp
##handle
##bf
##pars
extension
instr324
dcmstack
##2e
nmod
axmpp
aset
inner
##ccess
lex
##5f
gwenview
##ingleton
##mote
instr322
##script
dicom
pspec
pretty
##ays
outfile
##mmodel
6a
##680
instr297
##cul
##parameters
##arsh
asrc
retval
instr295
##bits
dcmdecimal
dcmdecimalstring
v2
##fin
dkim
gensym
26h
##7d
az
scal
syslog
##imizer
##alw
instr291
##quenc
axes
instr330
instr296
##580
##780
##fffh
##logger
spatialindex
instr328
##tom
##610
dummy
orth
3e8
unpcklpd
sync
password
adbusdbus
##cpp
##acity
step
##stext
instr293
##4f
pixbuf
instr333
490
##eason
5c8h
instr303
##enode
instr294
outf
##ww
##utable
124
84h
forward
##9a
program
##pref
5e
500
4a0
##ea0
dvb
und
##container
##signal
10c
##iqueidentifier
instr301
writ
warn
profile
##geometry
loglevel
engine
##ating
##sock
##oin
cos
series
##pool
instr338
star
adios
paddd
strcat
0cea8h
tools
flipped
##enum
instr313
##pend
##ia
border
history
##bert
dig
0fffffffffffffffeh
4e8
instr309
dump
5b8h
rad
fwgui
##find
4b8
prov
ln
vtk
##cli
instr304
bro
qlatin1
##rames
##ideo
##style
tok
dcmshort
##etchermin
instr340
##imum
pdp
usr
cod
instr302
76
0ffffffh
instr305
alignment
drawable
tcp
done
##conv
dcmuniqueidentifier
##sation
##lelement
lineno
8d
reference
esc
acng
parameters
pixel
424
stats
##istry
memm
##dd0
##iod
instr306
connectiontype
safe
ddl
618h
hh
sketchermin
cg
##lass
allow
instr307
##ydro
nilsigc
##each
##params
##evt
6b8h
##specific
sym
668h
3b0
##simbody
hmm
cid
##cut
##service
##ination
cpu
4d8
##les
p1
##eadd
##ga
expected
ca
mis
##9d
geom
fputs
entr
instr315
assoc
##360
xdmferror
##undo2
##ature
opts
738h
##ias
kundo2
helpers
##aps
2a0h
##1e
reply
instr332
anot
##services
depth
##eap
##ie
##ake
aglobus
pwz
instr317
lpstype
chunk
qdir
fflush
6f
ade
mx
3a0
sdl
##acd
aself
##118
transform
##operation
##unct
##ac0
##uc
instr348
270h
aint
instr350
340h
nv
instr321
##metre
##gets
##connection
##esponse
scor
instr319
##tle
memmove
##5555
##ins
dba
9001
logic
cleanup
rows
##oped
433
##588h
instr314
instr0
##ewidget
na
##c2
ajstrgetlen
transl
101
100s
##008
instr358
instr312
##ati
768h
144
##econfig
##elp
3d0
bookmark
4d0
##abh
items
instr368
tx
##ec0
thec
##igra
wxstatic
##reat
##cmtk
pdf
owner
01745329
bar
##ility
qi
instr360
7a
libsimbody
libsimbody3
##scal
instr316
fwatom
syn
##ocus
bd0
aen
998h
limits
ownstext
fatal
##brush
down
msgpackiodevice
##ning
2400000000000004h
watch
##orld
##mplace
02x
##eco
preferences
agreenwich
emplace
used
cmovs
aorg
contain
msgid
reason
##vr
lgetstring
elf
##column
cancel
isempty
setb
##cmd
858h
##source
sup
##symbol
audio
fds
##epack
##height
404
omn
##esult
718h
##eref
instr323
try
##messag
##tab
##b7
panel
3e0
intstd
instr325
##b3
instr364
tank
##interface
##ri
##stor
##bound
form
split
##lict
8ch
##lig
instr327
##oken
instr378
678h
##umns
lgetulong
i18
508
##b6
##ground
##d7
##ff0
pred
##lx
conversation
iod
driver
45db
instr329
dist
cmovnb
##oice
alpha
p2
31h
0ffffffffffffff80h
t8
##arser
dropbox
instr326
instr331
##ed0
tinter
md
4c0
3f0
##allel
plugins
atest
##parator
vbox
##agic
708h
##xygen
we
##dcmt
fwservices
88588h
endian
memo
dims
instr365
##address
soft
##b80
##chart
dt
##iation
oxygen
##eapplication
component
atmpfsdcmtk
atmpfsdcmtkdcmt
simple
fluid
auto
##vent
emit
10a8h
memcmp
asp
##ab0
buff
play
lst
overflow
gdi
##graphic
6c8h
dgettext
##rag
##ready
##checked
61h
tinfo
b88
##mime
pthis
##locale
instr370
##ooser
errormessage
4e0
##imedi
img
types
##lt
tmp0
##mi
instr366
nam
230h
cach
##esentation
bmp
acd
0fffffffffffffffch
art
r11b
klass
4000h
x2
##atio
accept
##sn
blob
qreg
aselfnull
##kb
0fffffffch
63h
sum
##head
sourc
nbytes
##quire
instr334
instr335
piec
lpdtype
##series
##pat
enable
##double
##ak
instr337
ft
chars
105
aread
240h
##angle
alibss
executable
1463
tex
1030h
instr347
instr336
hint
##sqmaster
adaemonsqmaster
3bh
##ren
wcs
##itemmodel
958h
change
5a8
getc
after
lset
metadata
lines
mt
##1980
##mlelement
##clude
##530
author
##imem
opendrim
loop
##collection
##ures
422
4f8
sound
tmp1
##ad8
instr339
xmt
##ointer
##x0
##uint
##imediac
instr341
pulkovo
cq
mpz
##gra
fields
##aaaaaaaa
supported
den
92
##eq
proced
instr345
##md
visible
##9f
nod
instr343
##latit
ror
12c
tol
fwruntime
##ecord
wxarray
atext
instr342
300h
instr344
##crs
##ij
##vec
##author
40c
dcmp
extract
##edialog
s2d
758h
fe
stos
template
96
qpixmap
cols
adjust
units
instr346
pixmap
##e40
instr374
qcolor
14c
510
97
45db50
##imediacodec
region
##trefer
spin
##igin
dd
procedure
ajstrassigns
lit
538
##only
finished
virtual
0ffffffffffffffd0h
##proxy
sketcherminimizer
86
pending
868h
alibs
134
728h
##ers
pcmp
instr398
4f0
##300
##editor
qjson
success
them
##gt
tb
instr380
errmsg
##uss
yamimediacodec
instr356
keyword
##plet
0fffffffbh
ascii
rdf
##args
##pop
##vertex
instr355
##andler
contact
bss
##00000000h
##ilog
528
##sport
##ustom
yasm
##ater
##select
##arshal
##boost
verify
##ior
##hm
siz
##boxlayout
pn
instr349
video
##ational
public
a9
##inf
##support
##viewconst
wxarraystring
getspecific
ix
unity
2c98h
##screen
strstr
##simbod
828h
qmapdatabase
wxobject
complet
##panel
##iparser
atmpfslibsimbod
hex
instr353
instr354
gno
glw
prim
lt
##4d
320h
instr351
##rand
bzr
109
##void
##bus
aline
instr388
aclientsq
ctrl
##share
##ydrogen
cw
##igraplan
package
##edata
random
560
##ote
import
##found
##men
1068h
bg
##a80
0c1h
##clat
fo
##arr
instr399
progress
##utex
abasicstringapp
instr352
tls
##aces
##bs
agames
##eff
##scoped
250h
2d0h
shuf
em
##cache
##ipher
td
##su
qmodel
unpckh
initialize
vala
resize
898h
bal
feature
acouldnot
qmodelindex
##f80
840
x1
now
adefault
##ily
##comb
por
tmerc
duration
qfont
instr390
errcode
yamiparser
##ddat
154
##tmer
aprojtmer
aprojtmerclat
force
aex
##mult
##88h
1098h
qmapnode
0authority
instr359
##ension
any
##scale
requir
##qstring
##oth
psr
##zero
instr362
instr361
instr363
698h
cluster
##factory
518
##colour
encoding
ajstrmatch
instr357
##c80
ce
aauthority
strnc
##fro
##ometry
abad
##yam
operand
instr385
gam
sensitive
##kit
##mpeg
0fffffffffffff000h
pkcs
have
dfe
strcmp0
spool
arr
##sized
wp
##obby
##ofstring
filesystem
tw
65h
999
receiver
qpa
##category
##record
summ
10b8h
eff
sel
xmlnode
c1
unpckhpd
##codedentryvalue
dsrcodedentryvalue
expand
##region
##sole
fwme
##mac
##ould
##fore
defs
0e0
8b8h
530
clock
instr400
bb
##bauth
##000000000000000h
fam
wxwindowbase
awarning
##eloc
sv0
instr414
638
##prop
##sgi
##egin
570
nth
qhashdata
qvector
##omelement
##4e
atoi
36h
nt
##formed
211
ajacd
instr367
72h
aauthorityepsg
550
##gg
##sistent
##iff
42h
##ixel
mount
val1
instr372
fit
290h
pf
yamilog
seek
801h
##orityepsg
##sort
##can
ssg
argcount
findoption
0174532925199433
nd
r12w
hydrogen
##topology
2f0h
instr369
score
8d8h
1088h
abasicstringm
ff
instr371
instr420
instr410
pkt
##icator
##9122
qbrush
f2
##ene
520
addpd
multi
schedule
##component
13c
perror
638h
f1
instr376
instr375
instr408
instr377
##ern
center
kw
mn
tinterm
dcmshortstring
instr373
pow
hdr
logmsg
##d80
##fffffh
xev
efont
rp
dh
##endar
##integerstring
multip
dcmintegerstring
##edd
occ
world
1078h
##pointment
lgetlist
##site
handleresponse
palette
qpainter
##points
fst
instr379
169
notebook
eval
constraint
instr415
##result
ll
qlabel
acant
instr382
1a4
##ehicle
hit
extra
instr412
aver
instr418
00000000005
instr387
instr428
##formation
000000000001
##inition
instr389
gz
regex
ajg
geogcs
instr413
psz
##eb0
flint
mainwindow
expression
a00
1048h
##oxmlelement
##py
##move
##ailable
wsgi
r14w
instr430
instr411
280h
filepath
12ch
2208h
abasicstringmco
aparameter
##ofcon
may
753
prec
##ear
bucket
##bin
##do
instr422
590
peek
errbuf
geometry
##509
nval
6d8h
##clear
instr383
was
clin
548
instr381
feed
##sync
renderer
2400000000000005h
##udy
charset
540
##722
delay
##vp
##assert
10b
##treferenc
xq
folder
astring
tt
little
##rs1980
##ware
vert
##true
qdomelement
getenv
instr396
amalloc
koxmlelement
##skeleton
94h
v1
##chem
built
sav
##units
orthanc
0a0
die
sol
fld
##ede
##opts
ant
0fc8h
ci
##108
instr384
ttype
##msession
260h
##test
buffered
whence
##common
##ece
comment
general
qdbus
aes
edge
chooser
instr433
##vw
##title
hbox
character
mb
oflistbase
stacktrace
558
fread
angle
r8w
##ffix
datetime
1f4
instr419
hide
identifier
instr386
good
908h
##ificate
punpckldq
instr402
##olor
binary
d1
2710h
fwmeddata
geo
##sink
##area
##mess
##authoritye
qfileinfo
instr397
ic
instr391
##treewidget
instr393
ajacdget
14f
instr392
174
entries
nl
##cheme
disconnect
sd
##388
87
##ulator
instr424
trigger
##reader
##concat
mesh
stosq
##measure
##elt
collection
boolean
##ization
##anges
matrixhelper
cy
##ssl
##push
##ged
syntax
blue
qslotobjectbase
propertymap
bct
700h
##pm
listener
messag
##sitor
subpd
dsp
instr416
delet
ahh
len2
xdmftopology
##89
lx
##degree
##ranch
chrom
apply
instr409
748h
##sig
instr395
h2
instr434
##c9
backup
tmp2
ssh
paddq
##obil
568
##subtree
##64h
##bitmap
838
aname
0b6h
ametre
##standard
5fh
clineno
828
agtk
aser
dot
aget
##7298
##lohm
##lohmann
##pass
objectpath
578
##aly
instr394
instr432
inptr
avro
8000h
descriptor
##supported
tooltip
xf
andn
aselect
##memf
instr417
destination
##coll
instr405
instr401
gee
0d9h
addoption
688h
##callback
4eh
04
##execut
##ewise
contains
##sec
410h
1ac
##chartype
resourc
##etic
580
##memfree
cnt
does
a5
##chartypebuffer
attributes
piecewise
##edir
##fn
##ilename
wxscoped
wxscopedchartypebuffer
2b0h
known
diff
deque
astr
##pid
avalue
788h
promise
memcontext
##content
9ch
##limit
8c8h
jnp
ajmemfree
000000000041
##cast
lexer
qtreewidget
888h
int16
mk
reser
measure
instr440
vbi
settext
medi
0feh
andps
aadd
qabstractbutton
vtt
activate
retro
wxdefaultposition
r13w
a13
##cent
##4a
cryp
##combobox
##access
103
instr448
unexpected
priority
anad83
##dict
ajstrmatchc
instr407
tj
qdialog
##treferenced
##d20
##exc
##utmzone
##jap
hostname
##enorth
dof
instr403
878h
##axislatit
##710
fx
##codesequence
iface
ul
##logging
asss
qstringqvariant
instr404
xmsession
wc
instr406
instr438
##typed
freedesktop
ome
##4b
##econtext
73h
##current
small
##rement
##patch
baloo
ov
##ofstringarray
keys
applications
defaultvalue
630
png
gauss
978h
##evtx
adv
1000
fra
1010h
clustalw
##calloc
install
clicked
##ular
##estate
##ha
addwidget
0b4h
1e4
offilename
qlocale
234
##lim
curl
848h
##normal
16c
registry
getand
104h
1280
##ement
46h
scheme
reading
instr450
15c
5b8
swap
##semb
qregexp
sen
aux
66h
7530h
remote
instr455
##conver
##prefix
volume
9e8h
clip
putc
d2
instr468
##entic
464
##eadaptor
t9
##initial
##light
koxmlnode
fbb
qualifier
instr458
ossimref
##ataset
800
song
##ulu
ossi
598
##mma
0fffffff8h
tf
coordinate
instr423
##fetch
224
shufps
##dirst
amax
already
entities
##370
summary
failure
instr460
dcmunsigned
zoom
ke
##allow
##sky
broker
instr425
saved
instr426
freq
istream
rt
ajtable
##vey
##formal
fstp
fi
95
pairp
columns
provider
atrans
instr437
102
ajmem
prob
wxcolour
##geom
instr431
848
900
themodule
##sharedpointer
cred
818h
##copy
##save
iv
##olled
5a0
instr421
cipher
instr427
needle
##buff
wrap
69h
##proj
xr
strncasecmp
drtreferenced
##umb
##rowser
arrayviewconst
##eah
##asy
stackexception
delta
##vm
##alformed
power
xy
int8
agrs1980
instr429
5c0
##d2000
##yped
0cch
6e8h
4348h
##parent
len1
ifstream
aup
wi
you
##search
##944
##tra
bottom
##lag
##ount
instr464
##engine
single
##atform
650
c2
10d8h
qlogging
qloggingcategory
abo
aaj
##ances
##unctor
utils
entity
ctr
2c0h
best
156
670
6eh
5d8
malloc0
##yptr
1058h
vars
toolbar
184
instr470
10e8h
sendto
error0
b80
1268h
slist
r15w
i18n
##umen
amallocof
##device
encryp
37h
instr465
39h
serializer
##qualifier
errorinternal
##1010
##estd
##memcpy
family
##sizedf
##interval
mi
amallocofsizedf
##resource
588
amain
tick
##ency
qcommandline
addaction
##owner
cqo
iss
620
instr466
ids
##estat
focus
nvim
##shad
600
separator
##cription
strl
7a8h
##anner
ajstrappend
poly1
##esc
heap
928h
pathname
8a8h
1authority
tre
instr436
signature
##na
##messagebox
##ped
3ffh
x1b
instr439
##ilter
0e8
##2e0
##freedesktop
##owsky
##333333333333
##leng
aad
shift
anull
mnemon
da
ahttp
aorgfreedesktop
0bch
acomp
##ocon
admin
968h
setenabled
amp
isvalid
##oint
##licked
instr462
scroll
##full
aac
should
948h
instr498
pyobject
628
sqlr
##octl
ausr
##xfer
sgeobj
instr474
midi
compo
libc
##fromdataset
##fail
##assowsky
##package
510h
5c8
rot
5f8
cmdline
1fffffh
##other
instr480
instr435
alat
##c6
##120
dav
instr475
##ediate
instr478
parallel
det
mpfr
##c5
8e8h
kcor
##simtk
factory
##720
##register
wxsizeritem
stringsrc
instr443
##ines
##bind
##root
scope
parsing
##datab
arguments
194
instr441
0a4h
##gon
##obilized
668
tcl
ossimrefptr
608
##ision
##lip
350h
nbr
##fm
instr444
##treeview
aprojcsn
instr442
omemo
instr446
home
asub
instr472
##86
cdr
##econfigskeleton
kcoreconfigskeleton
618
6f8h
##orary
acall
abreezy
men
instr469
##plugin
async
strconcat
asge
##mpt
b2
bdd
findwindow
##manag
instr463
##lictype
conv
##treader
##kim
##jmp
##prite
rate
filebuf
ensure
theme
gdcm
zip
ignore
instr454
jack
instr467
610
##ll
alias
bounds
##oted
instr447
##ness
chain
qcombobox
alg
##packing
mnemonic
5bh
conic
dlg
results
diag
instr445
##uple
gobby
modulename
##north
ti
330h
##presentation
5d0
wmemcpy
kod
00
660
vr
hl
##insert
applet
##137298
##c3
mpeg
##ternal
##ited
movh
propag
##vl
##about
##clos
setstring
##obilizedbody
##ds
##empty
fg
received
nr
798h
xdmftopologytype
##6d0
userdata
##kpl
##aabh
380h
##6378
##display
##core
4ac
##236
##mmand
678
aat
station
##ission
resp
strtok
34a8h
psrl
##140
instr452
##cost
##magic
##6c0
5f0
configurationelement
refptr
pmulu
pmuludq
instr453
##960
rx
##bw
838h
band
lambert
t10
skeleton
##560
##rev
868
5b0
##keyword
misc
checkstringvalue
430h
construction
eq
0fch
9d8h
##dino
##generic
##boxsizer
sqrtsd
instr451
marshal
938h
##oriz
dcmunsignedshort
disk
##shareddat
overr
##aut
dirst
branch
instr528
recur
getandcheck
getstringvalue
calendar
fwatoms
annot
##c7
dsrtypes
instr459
avirtual
pdu
##location
88578h
##upper
##ids
unix
##tres
anum
778h
instr457
instr456
##unch
7f8h
##inc
5e8
3cb8h
instr499
instr449
nullsub
certificate
pin
synth
points
propagate
33h
instr490
aop
##reelist
comb
background
##aaaaaabh
xx
boot
##side
##namestr
dvps
##mpler
appointment
instr500
depend
##geobj
alibssgeobj
7e
dirstate
##monq
##apointer
lfreelist
optional
surface
##vas
##trap
##ec8
2000
iservice
##160
ck
vaap
818
##soleapplication
##ste
##yph
pkcs11h
##rule
poly2
instr461
acquire
kaction
qgraphic
##uler
transport
optind
##character
trf
ofconsoleapplication
xqi
##shareddatapointer
128030
crea
##rayptr
101h
instr494
8a
slots
couldn
0ce
share
##uage
wxmb
wxmbconv
suffix
adc
occurr
##note
amod
channels
spherepack
##elementfromdataset
##headend
instr520
np
a12
pres
##648
##va
unic
##brary
##mount
##vision
stacktraceparam
##packet
##sur
##gu
##yoff
858
ajmemcalloc
putchar
2sp
complex
##chema
3a48h
##alk
getandcheckelementfromdataset
##right
buflen
##elementtod
##elementtodataset
##ges
##2007
pad
infile
rv
fgets
instr471
##last
instr473
ajstrtoken
360h
x509
pyexc
pb
bh
##rac
instr488
aur
seconds
mtp
##utls
##poser
fcml
1b4
vt
ignor
afailedto
##licitly
##gname
bufptr
uidx
ptt
##ndle
nb
conformal
##variable
but
numeric
opent
termin
##lay
scalar
474
##beam
##9999
rf
qline
recomp
##extension
scrolled
anet
##pec
gpm
7b8h
##sity
serv
instr522
a10
anone
mr
actions
instr511
super
0b0
instr508
join
age
qstringqstring
##destroy
##selection
radi
children
##iron
isnull
5e0
interval
##prog
##dic
##ctx
ajob
aclientsqmonq
aclientsqmonqmo
instr476
dtp
##700
93
2e0h
##change
japi
e2
##ability
adis
##ofitems
tsymbol
thecstring
phy
running
##ample
acheck
qlatin1string
what
instr519
instr483
##65h
instr477
ajmess
jingle
substr
xpp
0f8
##usage
rea
##constr
buffersize
adat
instr510
918h
3d0h
##ryp
rl
5dh
##scall
##expression
instr482
1158h
ki18nd
instr491
stringtree
##9910
1249
wrong
##syntax
ajreg
cst
##directory
##estamp
658
##japan
##getc
instr479
640
20f
648
der
##188
aend
cmpn
##288
occurred
1330
##320
##ofor
geos
ajfmtprint
xfree
custom
##vious
decref
instr484
kundo2magic
kundo2magicstring
instr481
ask
addelementtodataset
##licitlyshareddatapointer
##leg
45cb50
1028h
shader
addmethod
cv
astart
punpcklwd
##erenced
awgs
pipe
##ik
webauth
##stop
instr514
publictype
ajfile
mes
instr492
company
##leep
instr534
partition
17c
lower
disc
bfwin
aas
##lu
##etyp
asys
relation
##3a0
##qs
instr487
vehicle
6e8
aal
instr515
176b
avector
##mpq
structure
tc
y1
1068
multis
increment
embed
000000000004
instr530
##rel
14fb
setp
##active
nelem
##guiitem
14bd
##amera
##idec
cached
nampl
imag
15af
310h
instr525
0ach
more
##target
##japanpl
ares
recompile
aconn
##eapon
instr489
##player
##1000
compar
##begin
instr485
##114
aprojtmerclat00
##uch
000000000002
##imemg
##apter
instr486
room
instr512
mix
instr524
1ec
aan
anew
colors
keyboard
glvertex
instr535
auser
0c4h
##tionary
instr513
fdk
##och
820
hw
instr518
a20
qsql
ins
##f540
ajgd2000
sem
extent
exclude
weak
08
698
##foreach
instr516
##apt
ofpair
instr493
##devic
##trics
instr517
atype
3658h
before
##tended
ajgd2000japanpl
aproc
agl
stdin
maybe
chat
wxtrap
141
##band
spl
crypto
##compl
optionentry
##tric
##track
##gdcm
fbba0
geod
680
##etable
required
##788
cost
demod
oc
nx
instr558
##desc
##au
strr
nodes
##500
1fc
##echar
decl
tot
0bah
athunar
oflag
##ops
mobilizedbody
proto
##spin
bigint
arg1
atof
222
##e10
qsharedpointer
##prec
##ora
##ithm
465
eap
asql
##unablet
##hdr
xfer
0c0
primary
3fffffffffffffffh
##900
##day
about
chr
ioctl
instr502
media
pamh
instr540
met
indicator
##shot
dm
##fromelement
instr495
yyg
1040h
62h
235
aprojcsyoff
aprojcsyoffutmz
instr533
##argin
10c8h
utf
414
wxdefaultsize
35h
##arke
reverse
rgb
##setup
8f8h
106
qstat
length1
stringptr
b7
trackable
rectangle
##350
##atalog
0de
lb
lens
instr496
##eres
##b40
##first
restore
##extr
getfloat
apl
grs80
1038h
r9w
000000000042
8f
subscr
instr503
instr550
instr548
##edh
execd
49h
acommon
115
elt
##task
chart
##subsystem
##readline
##writ
1dc
instr504
xdm
jpeg
land
alt
##308
ren
##utdown
##union
##gener
card
fseek
##term
##identification
##remov
##encoder
instr507
850
qlatin1char
notice
0ba8h
sid
pcmpeq
##eav
instr538
instr501
##axislong
ls
qry
aconfig
gva
##allet
122
wxstatictext
qlineedit
syscall
putofstringarray
aerr
18c
3418h
##acing
calcul
instr564
atomic
instr505
##666666666666
0f4
##ollow
sourceline
0bdh
##901unit
tmp3
0e4h
##8888
##ured
##117
##ogn
##inates
##trequest
##non
10f8h
treeview
qdomdocument
##etest
10000000
rop
45h
##600
x11
##typedsr
##meta
enumtypedsr
enumtypedsrbasiccodedentry
u32
##theme
instr532
##b20
0dd
688
instr497
##1bc
##isual
##ivity
7dh
editor
cons
##sample
execute
instr555
6c8
hi
flo
##f530
##708
dcmsequence
##finish
177
##2000
##atype
dcmsequenceofitems
700
0d0
gnutls
foot
##39f
getstringvaluefromelement
activity
##amper
##alg
stock
south
0d4h
0a48h
dcmnet
instr509
instr506
tz
rfb
##urity
##errors
available
##lines
axml
6b8
214
##seek
6b0
##sets
exist
##nodes
##alt
##clud
##estion
##floating
hashtable
##pixel
6fh
fmpq
revision
##roc
aprojc
generate
##disposer
##activities
compress
##b60
475
##620
attrs
round
qmenu
cull
690
plist
121
119
instr560
##vala
y2
aapplication
##boolean
##c60
e1
shadow
aglobusx
##oded
6e0
0ca8h
instr563
instr568
##ture
malformed
1048
ty
wxget
nw
scamper
snd
##ityepsg
10ca
instr578
0f000h
press
asn
direction
ald
finalize
##2020
##vers
112
ub
##de8
##rows
allocation
seed
ea
##chedule
##lementation
7019
inet
##layer
4ah
860
instrument
weight
##cell
##ols
##540
##oding
7e8h
##116
dn
ossimfilename
##001axis
##authorityepsg
instr521
##mutex
##85
vf
tsymboltable
qstandard
qboxlayout
128360
xe
requested
andnpd
instr523
##he
commlib
qpen
instr567
decoder
##iven
strbuf
watchman
instr566
ao
##hy
##tuple
##rad
##zone
370h
interp
instr551
calc
##2d0
##elete
multisingleton
codes
dg
19d8h
a02x
instr527
bitmap
##42a0
kru
adw
instr580
##sdialog
cqueue
isd
modify
zz
colour
##ally
disable
0dch
intint
aindex
##now
pang
##lected
##ugh
02d
810
##project
##ression
##ry
ainsert
000000000003
strrchr
backend
##acement
##d150
transaction
##adaptor
unlink
500000
iov
codings
kactioncollection
hbit
##d85
3c0h
tix
wcslen
instr570
atex
instr526
mapping
##ffile
##tread
##rs2007
instr562
##d560
gf
s0
toplevel
##abl
instr543
instr575
digest
##frames
specified
##ubl
ud
##ad27
47h
##ff8
instr531
55h
instr536
##arge
a6
##gdcmio
##store
ajseqget
lpfunc
htp
898
##510
494
1018h
instr529
stdscr
113
afor
abreezyb
##tref
##eds
0ech
instr537
152c
sep
233
##kg
rgba
##oke
cam
bigstack
##s2
instr565
sketcherminimizeratom
##688
##4660
##efined
ashow
52h
agmime
##rg
##ans
##cle
getunt
##ifest
1940
2258h
using
##uri
putstring
smp
##nulldata
0ffffffd
gnome
wxprivate
1338h
6a8
##208
frames
perl
##ypednulldata
getuntypednulldata
instr554
alist
she
264
kind
ajstrassignc
##198
##inant
##dep
aar
830
ffmpeg
##pres
988h
##pu
4bh
718
##thandler
usec
6c0
255
21c8h
mpi
external
qsettings
adbdb
##730
1bc
tvheadend
punpckh
##fileformat
software
destroysubtree
ajfeat
handlers
##foreachcontainer
##glob
##ffffffffffffff
##ible
##uff
commands
instr552
instr569
instr547
##tim
##ens
ajsql
##uture
740
##itx
psl
##kk
##abas
nxt
##tog
instr574
748
11ba
420h
fetch
##722210
calligraplan
##icture
rank
##estatus
19c
setfunction
kh
##fix
##trim
lif
usb
setnb
blk
instr612
wt
1ab
wxtext
##e60
dcmfloating
ajmemcalloczero
##290
##warn
878
completion
##04
instr544
norm
##ensitivity
yyv
10cf
recv
##ied
##idden
qabstractitem
conversion
accel
avectorm
7fffh
##archive
204
instr539
aopen
##poly
808h
desktop
8b
cck
instr594
##340
1942
instr542
iso
exiting
##ironment
acommand
beta
ring
##ouble1
sysno
9c8h
20e40
7b28h
##wrap
orpd
instr541
710
##assoc
acreate
quality
opcode
abc
instr557
iq
##import
##760
##req
20e80
6d0
grow
arrayptr
##web
pango
perform
instr572
##umbn
aloc
wm
apref
axmppvala
##660
##920
npos
##graph
160eb0
13d150
146350
##130
20f530
134660
1330b0
176bd0
##unic
156ce0
14bdf0
14cb50
15f540
169ce0
##sv
20d560
1f0530
146310
1442a0
14fbd0
15afb0
20f944
1501bc
11ba2b
11c39f
10bd85
14f236
1249ca
10ca9b
152c47
10cf12
20e40b
20e807
##488
aspher
kruger
download
6f8
##strings
instr598
bce
readfds
##dim
##220
##keys
adbusmessage
alibscomm
instr588
##ijing
390h
rsc
##properties
instr556
##argumen
toc
strtod
7bh
definition
configure
##128
nlohmann
##pi
##7b0
##115
markup
prepend
##256
##7d0
##lec
quit
prefs
analy
9a
4b0h
astat
232
instr590
scorched
##irect
dimension
wxbitmap
##serial
qdate
5ah
aurora
##filtered
##790
0fffffffffffffeh
51h
##dd8
##network
0fff
1cc
allowed
validate
##lend
590h
thesize
alpp
##fd0
##uni
##910
##rid
##place
##e00
instr545
0b08h
##show
sop
aeasting
popup
4e20h
tl
kern
##configuration
ki18n
244
##eground
##ommand
wb
##650
8c8
##score
instr599
role
events
many
##pre
##ti
6d8
movsq
valu
20c
sinx
matched
##ipy
##go
promis
##a60
cho
9c40h
chan
0a28h
##74h
##ets
##realloc
kfile
instr546
btree
xset
##ea8
article
xa
cinfo
##eand
##588
encode
awr
##dc0
##umbnail
pyobj
agent
6a0
instr600
7fffffffffffffffh
##3d0
##attributes
##run
anumber
coll
##updat
##pe
fram
##modelindex
abs
ha
rig
##iop
while
username
fwgdcmio
instr561
##apacity
instr549
##adr
cgal
instr553
alw
0ffffffc
bundle
saf
798
##allowed
209
getr
subs
concat
instr620
xobj
threads
##ential
iconv
yamilogflag
dirp
bm
alibscommcl
instr584
xkb
compound
visitor
amissing
##tkey
alog
333
##chron
221b
liste
0bc8h
commod
1f98
corr
instr559
gm
functor
##fw
atransverse
atransversemerc
##tob
##ota
##split
enc
##eb8
##orithm
setjmp
##ade
1c4
##game
qtreewidgetitem
complete
4d4h
unfiltered
##statement
##zip
129
##150
modules
instr618
##syn
##att
instr577
aqmon
##rang
abreezybzr
tiny
7f0
219
##qui
##validator
qabstractitemview
aff
##pare
3e0h
gettime
466
##uts
ii
thresh
jobs
did
##scroll
aud
7eh
nelems
uint32
mouse
0aaaaaaaaa
145
fwcom
commodities
kguiitem
##applic
2413
special
##proced
instr576
ajstrgetptr
0a18h
##ambert
1038
language
##persistent
instr622
deleter
awindow
avi
qtime
##240
##d00
##7e0
yes
##notify
0ac
refresh
cosx
fromspace
adebug
0ab
instr610
qrect
dsrxml
timestamp
instr614
##330
kill
authentic
808
setvalue
##249
##f10
##arm
0ec
xfce
##itical
modified
shortcut
##fc0
##tos
aem
##built
instr571
1108h
##fac
pheno
##codec
##6e0
ameter
##xl
tmp4
instr634
##aget
##390
instr581
1f4h
nla
omnipy
4fh
aaut
##feature
##help
550h
b9
ir
t11
9d
##740
h5
79h
tolower
##ellps
gmime
qinstance
##190
##explicitlyshareddatapointer
##260
percent
728
##edwidget
errorcheck
vs
asm
##dist
pydict
aon
##sib
1050h
aid
aesl
instr615
##3c0
10ch
0000000
aprojutmzone
amodule
lcc
3f0h
##ofcondition
instr585
editable
browser
aofcondition
tags
##770
##vh
cover
7f8
##6a0
##630
instr573
instr619
##atools
##616
maxsd
##exiting
always
##estor
##nn
corba
4dh
##lepc
##libs
##1authority
##trs
instr583
##fra
outlet
ops
instr608
##istory
instr633
##sive
3b0h
information
instr593
0ffffffe
mak
anorthing
pparse
##ments
##ystem
dirname
##fg
tod
uii
toint
bio
##done
3ff
##dbh
##quency
##170
##7f0
exact
##chars
yyvsp
starts
0ffffff80h
1ad
##red
##phan
optval
6ec
1d4
padding
0e1h
1ffh
aload
mc
402
##f50
##echanged
##ed8
##d60
aout
previous
he
ter
##conform
##post
##ayload
##hint
easy
##1940
instr582
##inted
ot
##nodefs
instr611
dem
##datac
asg
##translations
deref
aprojl
##2840
aref
##ocase
##e50
coeff
instr628
6f0
##atec
grad
samples
730
instr624
libsrc
fixedvector
tinfosink
qjsonvalue
fm
##efault
##690
0e08h
##ense
##study
apsg
subject
##formatstring
3a0h
##bad
instr616
##storage
ofstream
instr587
instr613
contents
7d8h
##mail
##9122axislatit
2ac
##ho
overwrite
9f8h
builtin
shutdown
##named
##pixmap
qabstractitemmodel
##report
##loop
##smart
0ffffffff8
##tow
##six
405
1995
aarray
hlsl
760
instr579
##1b0
1778h
instr589
ros
security
cn
soap
aprojcsnad83
##erican
##1111
instr630
##persistentmodelindex
##para
arc
##atter
##pg
##cclat
aprojlcclat
apulkovo
##iption
##attrib
instr662
880
od
day
details
handleresponseerror
est
instr617
instr592
##mpi
450h
##matter
instr591
##264
##osd
national
hold
##ym
##urses
##recogn
xmalloc
trunc
instr596
aephy
444
escape
1058
##send
##doc
##ublestd
##queryre
768
ptree
##408
##eaction
instr650
dcmfileformat
aversion
asunablet
20000h
md5
##warning
kxml
grab
##fill
##less
##759
neovimapi6
fullpath
notification
acouldnt
foreach
##andid
##eread
agener
acces
##strdup
##parame
##trigger
instr625
640h
gff
23c
disposer
##113
equ
instr623
fork
0d18h
getstring
254
p7
casesensitivity
6378137298
##ce8
instr586
##fburn
netdev
##datum
merge
tinfosinkbase
getvalue
defined
dictionary
aev
##192
5eh
effect
##spinbox
atexit
274
1af8h
dsrdocument
et
##a50
resid
platform
mulps
4ab
idle
instr597
0aaaaaaaaaaaaaaabh
binding
wav
www
than
launch
vim
0fdh
errors
vaapidec
##ssss
##e90
##520
bcf3
##land
gaiaexport
aproperty
logrange
instr635
##istics
into
cmplt
tax
##f70
##d70
athis
##1c0
images
2011
movhps
fac
instr606
708
720
aclicked
##410
named
##expand
##230
instr601
1118h
22c
instr607
fid
qpersistentmodelindex
resolve
aab
outseq
instr609
7a8
wxformatstring
0f4h
uni
instr638
##edat
goto
apps
212
floor
pv
##rrender
24c
##toa
chpr
##ordered
##a00
##ee0
##ff8h
seterror
instr602
aerrorun
american
##metadata
##kele
checksum
9b8h
delimiter
##7c0
instr604
##f20
##7a0
##has
##112
additem
21c
##blob
##utils
pj
##xep
0c35
texture
##admin
21a2
##ae0
##imap
instr605
##750
upper
##voi
##dirstat
qtimer
instr640
instr595
##section
##5298
##sge
##fcgal
asinvalid
432b
gt
##instanc
centry
hd
ncp
##f00
##roll
ucs
filedata
53h
##yami
instr655
##e20
attrib
##ugg
##isld
##widgetclass
acalligraplan
##shortcut
##ubic
9b
instr660
888
4060
41c
instr603
vdp
##strap
##152
139
8f0h
devices
ipv
4d4
mesg
eh
itor
##111
##sitem
keep
nonestruct
tracee
ato
aunableto
rem
libyami
aro
blank
##cond
astor
##imetype
##oforigin
yelp
alibyam
ldap
athe
##geomcoll
kdirstat
##lext
alibyamisld
##deh
instr626
##crea
instr632
##constraint
##bal
yp
890
strip
##ambertconform
l1
resolution
receive
##a20
0174532925199433authority
kernel
a1c
0de8h
##9d0
glyph
##compress
thr
xv
signalproxy
linear
acm
wxdialog
##unitsm
##a30
##igen
##ents
67h
##licate
##3e0
eps
prod
instr664
0a38h
##unction
rm
lpdso
trian
renamer
instr670
1138h
scanner
s8
alibyamisldsd
signals
instr680
how
1318h
qexplicitlyshareddatapointer
year
##sequencein
adl
##af0
kp
##unchecked
##step
##alsenorth
cut
##988
8da8h
##hi
##draw
1128h
bookmarks
##psi
4cc
##df0
##ursor
fild
0fffffffffffffffh
7d0h
##ad83h
thecapacity
900h
instr654
##3f0
##d10
##2c0
##compile
4e0h
reached
##ari
instr629
##0000000000000h
rehash
0ffffffffffffffc0h
console
##ubs
##watch
##easting
1050
ossimkeyword
##mpr
adin
##6b0
##foot
aoutof
canvas
##fe0
##parsecontext
ogg
##paths
xdmfarraytype
instr666
##gres
##macro
awrite
instr663
unused
sbr
speed
0aa8h
##ofmeasure
0f88h
##autho
##250
8b8
webkit
0ffffffff80000000h
drtr
setr
1918h
azer
0d08h
writing
##sdr
catalog
xtadd
##formatter
dofdata
pdata
0f424
prepare
xs
##ogram
maximum
poll
needed
instr665
##erc
om
ctdl
440h
tixml
##eval
objects
a12840
##789
##e30
##parsercpp
1030
vtksmart
##jor
000000000044
unitofmeasure
0ffffffb
instr621
instr674
##towgs84
future
##card
instr668
0af8h
instr637
ofstd
a128401000
467
##ortion
1078
8a8
##emux
b3
vtksmartpointer
indexes
##f86
tmp5
unset
es
##account
instr627
758
##ots
punpcklbw
xn
##sio
tui
##etag
hard
1258h
9a8h
pq
ncurses
##texception
##mium
##9f0
##profile
##670
gltex
survey
yamilogfn
##vol
rlist
45c
place
newline
10008
instr678
instr631
2065
kundo2command
##reference
##exists
nest
##ane
newval
##1a0
aserver
pcm
1040
startrequest
startrequestunchecked
##fb0
compat
listen
instr658
wxsize
##peg
##soft
inode
##rror
##6f0
##quant
##f40
738
##f30
##counter
40d
ve
registered
##tempt
##eattribute
qdata
tty
toupper
checked
instr675
##a88
outbuf
##img
0ffffff9
##nv
670h
##3b0
instr648
978
##we
ainf
##ab8
##folder
adbusmessageget
singleton
cckd
##mport
alambertconform
##930
initialized
##mapper
910
aspherepack
amin
instr690
##atient
1298h
dxx
instr636
aign
511
##ecomp
instr694
674
gapg
neovimapi5
instr642
##html
##adcast
qcursor
##f60
6dh
longind
retrieve2
qimage
registers
pen
qcommandlineoption
0a08h
##icmp
##emov
canon
nick
alert
##326
composite
##d30
##urac
instr643
weapon
nex
##domain
dcmxfer
qstringbuilder
iodrule
instr679
geodetic
libcerror
0f0
##regf
awgs84
##8080
remain
870
472
gsub
##tentry
##operator
termios
atitle
##entities
instr667
##ancell
409
minsd
##istic
instr669
feof
##ad0
##inassert
wxtrapinassert
pls
##5c0
##met
afalse
changes
159
##pointsingle
dcmfloatingpointsingle
wxtranslations
##368
199910
ncurses6
19991023
81h
778
disabled
instr639
preg
generator
aoutput
dvi
##a90
aunit
##v2
completed
117
##a40
bootstrap
2400000000000006h
aerrorunpacking
##iple
decor
discr
instr677
##big
ageog
along
##5f0
states
aclcom
##e70
##hrow
asize
sg
descr
instr722
##erea
##allen
opentype
drag
##ubar
##menuitem
coordinateoperation
750
##a70
##00000000000000h
ainternal
carg
##trs89
##alf
##a10
##b90
7ff
socks
jep
1cch
pipedes
r10w
1088
inte
##fa0
dul
##hook
printer
##texture
afrom
aprint
25722210
##tile
##datatools
prompt
stosd
instr672
instr673
instr644
sigaction
instr641
sets
##270
7c8h
1020
##oooo
##bm
original
pk
ainput
##9c0
iteration
##anno
830h
ctl
wave
##ources
temporary
cwde
wxmessagebox
sprite
instr661
shape
##socket
instr657
107
sfcgal
##698
8d0
qsort
pages
strlcpy
##sth
##loader
##spher
##yn
kabout
dcmqueryre
##ackup
grp
##setting
##enderer
##usted
0c8
added
choice
8f8
calligraplanlibs
##ipe
##ac8
instr718
##9b0
neovimapi4
instr652
f2py
instr699
##aa0
tintermediate
##entralmer
poolpointer
span
42c
fromlatin1
instr647
##iterat
maxss
##essel
instr645
##numberof
orphan
yyval
928
##nump
##hz
gid
direct
##ustr
dj
locate
ho
##spatch
fwdatatools
##quoted
rev
numberof
8e
bim
expect
##anced
##ond
##bas
muc
p0
0cc8h
sfd
rval
fnct
demodulator
##ightness
##econds
instr700
462
25c
adjustment
disallowed
subscription
loader
zu
59h
wps
tmp6
peer
##550
strto
##5d0
instr649
a01
wxtextctrl
##chain
##301
##stubs
unicode
432b50
acol
265
instr698
ainfo
interactor
##opl
##db0
instr659
disp
##builtin
##ulate
pytuple
##b00
4x
##d90
translate
differ
compute
##lap
##81
capacity
tun
ajstrtokennext
instr651
1148h
114h
presence
instr656
##itud
##tools
lgetelem
0e88h
##star
##intchar
213
instr725
aunexpected
##5a0
##stubsptr
##segment
aor
dimse
##reply
##2b0
aobject
green
seg
acp
logany
##950
##allocator
##romis
##uspend
101010
adata
cancell
##fish
##qr
##doublestd
##ented
instr646
fwatomspatch
##tps
jd
##entity
menuitem
##primem
unordered
resources
psrlq
operandparameters
20ad
##estart
bitreader
qforeachcontainer
479
instr685
##pad
ibus
##ali
##ught
1768h
loadbuf
white
appointmentinterval
blocks
storag
actual
reserve
amult
fwrender
11ch
##description
##disa
##abil
##constant
thumbnail
aglobuslx
##iform
##imemgreenw
##0x
7b8
1060h
fwcore
1070
epo
4080
##actionmanager
##mainintchar
aintmainintchar
readd
transferfunction
##chat
##stran
##ef0
##ytext
aprojection
basename
##bf0
##1e0
##940
##f90
##590
##treenode
1388h
chang
headers
pci
##serr
1bch
##solute
instr653
0a58h
##cach
6ed
##translator
##pmk
nsrs2007
bufsize
##gre
agrep
9996
instr683
primer
instr682
myframe
22bh
instr671
##struction
0fffff8h
8000000000000000h
ie
aityepsg
##enew
##toolbar
##5b0
patch
8b0
hbitbuf
shortopts
8d8
undo
vo
rename
vaapi
aauth
##converter
7ffffffffffffff
logmessage
mm0
hs
dcmdatetime
arg2
##argumentparser
##9a0
##omalloc
alen
ity
instr715
nclist
1348h
14ch
called
aconnection
groups
##da0
##efactor
##databases
788
getitem
connected
43c
##nod
920
40b
##picture
gre
eof
achickencompile
ratio
instr684
tokens
prof
##lon
follow
agst
pmga
##iline
amount
instr713
##trum
nor
algorithm
##ewindow
aoption
1dd
qconf
instr710
alabel
##2ch
ainvalidpmk
ainvalidpmkleng
##echild
ossimargumentparser
##kplato
adino
fh
##configbase
proportion
akr
ndp
instr714
atyp
1a98h
##lii
given
problem
instr724
pag
0fffffff0h
neovimapi3
azeromalloc
azeromallocdisa
dcmdate
library
133
##333
apack
##sys
d3
seqin
adcm
770
cmpnocase
1188h
instr720
##ecol
##controller
149
cancellable
instr695
407
subsystem
asdinvalid
instr676
unsupported
##factor
##urp
##yy
dsrxmlcursor
epoxy
##ofday
##desktop
##scalar
bcf3c0
##always
##transfer
virt
##666666
ccs
##2pd
instr716
black
adr
##imcom
##inoimcom
atmpfsdinoimcom
##ctl
##mis
cp9
camera
ossimkeywordlist
demux
instr686
294
##depth
aact
08x
cro
patient
proces
##priv
##5e0
##1f0
463
sugg
vectorstd
##siduf
asdinvalidsiduf
union
useq
boollong
alle
subst
movsb
matches
##valuetype
radius
7d8
918
##connec
margin
##unitsmnodefs
##inte
instr738
262
##265
instr693
xpfm
469
xdmfh
##1d0
fte
1028
##constunion
distance
linux
when
elements
instr688
crc
dso
##regex
snap
present
t12
setbe
manifest
qpalette
##legate
179
association
##2f0
lm
##registry
aitem
mapstd
instr692
s3
##groups
##v1
##overr
instr728
0f4240h
470h
##pose
xf86
186
gets
116
instr681
updat
compression
tmpstr
##sdat
##crash
##spulkovo
cmpstr
neovimapi2
constant
under
##ba0
meter
wxboxsizer
4090
instr717
434
##mex
wxconv
terminal
##objectptr
effort
##lips
##entries
4040
##sstring
pms
osmium
##b88
instr770
iterates
anim
scene
buttons
typename
instr687
plug
setcurrent
longdoublestd
##selected
boollongunsigned
instr719
940
xdg
xmdatabase
spaces
instr689
##bc0
caption
xba
##weight
3double1
instr708
wxconfigbase
540h
psg
##kko
##657
tagname
xtaddcallback
instr691
##bb0
##kl
payload
##mattersubsystem
caps
critical
4d0h
##triev
102h
##ecod
fdelt
##508
124h
capability
##tmp
##eavy
team
##cho
11d8h
pandn
733
##f88
0b88h
wptr
##61h
signalproxynormal
messagedialog
want
gettimeofday
dcmnetlogger
##scrn
7a0
0ccccc
40000h
wxpoint
bitarr
##managedwidget
57h
getpid
pli
instr723
plain
contin
ority
ainit
aimage
times
aorityepsg
instr733
instr735
setattribute
will
tconstunion
##template
instr712
c9
##cles
##cols
mean
modifier
ausrin
11b8h
11a8h
##arb
fromtheme
tray
ajfmtprints
##pushappend
473
ebview
##beh
##generator
a7
p3
instr697
aschem
instr703
gtkam
visual
154h
tmp7
4e4
krassowsky
ef
1060
##case
s3d
##wb
ajlistiterget
flat
##ocation
##ecount
adcli
orthancdatabases
instr707
##eaf
qxl
instr696
##c88
##verity
10000
uname
8e8
56h
instr729
setproperty
0f5h
translation
defaults
71h
##visible
avar
272
stem
wadd
##imit
##eca
284
##3456
magic
##d40
pdb
atrue
kde
##wave
0m
##slist
locked
790
123
instr730
instr780
sx
##irm
aprocess
opkele
instr750
removed
##dn
xtcreate
##erial
##asst
ulong
##but
axmppxep
iteratesvector
908
anc
##prov
##plain
evp
month
##connector
##gtd
instr734
fuse
sieve
##chor
quant
instr701
instr744
##alpha
hom
qcor
ndppd
qcoreapplication
417
gsubr
dcmiod
wxgrid
##gin
7d0
two
##transform
flext
gpf
rtree
pscrn
subtree
938
instr732
##edr
1328h
##wid
neovimapi1
454
##9e0
nim
commit
##66h
##maps
125
lsetulong
pcmpgtd
r2
antic
460h
wxfile
ajlistiterdel
nullable
instr740
statusbar
sampler
980
getopt
##ality
schem
##econn
##erson
aif
instr702
##aud
colormap
ufo
lena
4050
##special
wd
##vars
inp
ali
##criptor
##igr
tintermnode
instr739
alatin1
aexpected
omni
multiple
lenb
##roups
403
8a0
##etail
instr768
instr764
look
##b50
cov
2bc
##b10
##stmt
##enam
520h
instr704
logline
480h
lists
##570
499
oact
bcmp
ahost
squ
instr705
4070
illegalargumen
illegalargumentexception
0de1h
ftable
uc
spacing
cu
baseobject
gmp
features
qpointer
##force
inbuf
ahand
voice
ajstrprefix
instr748
##unknown
##ntl
midiactionmanager
477
prote
##119
encoder
adaemons
##assowsky1940
1178h
##bd0
libdino
##ellon
##estore
instances
aiso
tid
##xer
40000000h
0a78h
780
4c0h
1010101h
##onf
instr754
broadcast
146
formatter
xstat
##usb
##oop
ahorityepsg
instr727
364
##slined
codec
##antpm
study
##shell
152
216
##bookmark
ulii
490h
sftp
tmp8
qpair
##datal
100000000h
aprimemgreenw
aprimemgreenwic
0e5h
##colum
82h
xrm
srv
##getlength
hority
instr706
dbs
tbyte
evc
psll
alibdino
04x
alph
##555555
sha
threshold
##ativ
instr755
##authori
implementation
77h
endpoint
0000000000402
##135
394
##classuid
##ccdh
##pri
converting
m1
instr709
814
logmodule
tow
##vwm
##structure
##608
##4800
8c0
dom
0ec8h
atime
##echeck
ready
##allback
##progress
destruct
##isnot
that
28c
instr711
##990
a70
##ecode
##ynamic
typechar
930
##030
##pattern
ajchar
##agent
aexp
##deb
##ocket
##800
linalg
968
atable
instr721
406
wxstaticbox
manage
##eact
agg
instr758
instr804
##aped
##identificationsequence
krb5
tmplist
##encoding
##proxymodel
asig
##malloc
0b68h
204h
stricmp
a30
face
qsqlquery
534
neovimconnector
2ec
948
##b70
a38
atofiterat
1568h
7e8
7c0
instr760
radio
##paramet
##enot
spa
##oes
instr772
##wo
##f1h
##b30
entering
0000000000410
instr726
rout
dispatch
4ec
decomp
errn
##quotedsql
rw
fits
##switch
334
304
##ceh
1648h
longopts
13f8h
##spulkovo1
native
1020h
##buttonbox
restor
##enull
arece
2cc
clarke
##fch
severity
0fffffff7h
quote
1008h
000000000005
apath
6f0h
take
##metrics
##could
d9
0a68h
76h
##alsenorthing
qcommandlineparser
##pherd
##uint16
dsq
564
udp
ta
##americ
##rd
accessory
most
##limited
0000000000408
afileslined
500h
eigen
998
preview
##shader
wxdefaultvalidator
acolor
##authorit
##finished
##overy
##troller
h265
10a0
vtksmartpointerbase
14e8h
958
aram
0fa
26c
10d
220310
##filepath
symboltable
241310
221b10
landsc
ignoring
560h
7e0
xfburn
##gid
wxfilename
y0
##ors
instr766
##must
##abilities
##gridlayout
awh
rethrow
dirs
toggled
sqobjectptr
##parameterf
##gh
instr762
dcmtime
##argrid
##axislatitud
##cu
abreezybzrdirst
666
##rofile
remaining
0fffffffffffffffdh
##9001axis
side
heaparray
##poolallocator
liferea
1098
##delete
instr731
44c
530h
a22
instr763
hb
accurac
##horiz
login
##ulation
##ereader
##ono
sqfp
uth
parv
aos
##andidate
qtreeview
100000001h
nullablevalue
0bb8h
instr767
##policy
##enable
instr765
ajstrprefixc
gk
##xd
##armin
##aste
libevtx
records
cb0
creat
brea
ageneral
vps
instr737
##attery
ajwarn
instr778
cop
##global
7b0
fixedval
##telement
##168
##capnp
ajlistiternew
iri
a28
akrassowsky1940
aseq
dcmshorttext
instr769
udt
##zys
##sep
instr759
##e38
instr736
##jection
7c8
allocated
##sockopt
aconf
##2a0
960
instr785
570h
##gy
txn
qgridlayout
dz
logantpm
lazys
lazysingleton
instr743
aspec
tclstubsptr
415
instr799
11f8h
aignor
51eb8
##reading
4bc
75h
deb
1ff
##vb
##rypt
qpoint
asq
##ematrix
ele
##fram
##ring
##prior
fwtools
40a
##hib
808080
##atar
instr752
bw
typed
readentry
fido
instr774
lw
a0m
activation
spline
##121
getproperty
requires
##ddy
##abc
nos
instr798
675
wxevt
##actions
##kj
fragment
2a4
sink
dicomdir
ajstrappendc
2b4
ncid
instr757
nxsstring
foreground
resourcegroup
299
40a0
##optionblock
tagkey
phase
ferror
8f0
instr775
ascr
unlocked
0c18h
##scor
gb
asrcc
0ad8h
a42
0c350h
xref
coordinates
314
getp
rules
uthority
##245298
##egion
##ewrite
hashstd
pcmpeqd
instr790
9c8
##projection
1238h
##970
instr741
cubic
##umkit
fixnump
##gines
bed
6666666666666
##0017
authentication
specify
wide
instr745
harn
para
acan
achannel
0bd8h
##sal
loading
##etu
lfree
##chunk
avg
instr773
atan
ahelp
instr800
afont
clipboard
##nlohmann
##degree0017
aunitdegree0017
macros
##255
dconf
##visitor
asl
##xyz
##seterr
##session
instr815
##imm
##separator
aprojectiontran
r11w
950
fcitx
sparql
##d88
instr746
instr822
cfd
a40
movl
8e0
textbuf
aap
psrad
instr753
hidden
##translated
##executa
2068h
ades
stage
##guic
##oly
unpcklps
vals
##uswb
packuswb
jac
0c68h
instr742
tip
##sembly
##51fh
##images
pim
##itudeeast
cid40
##othis
instr782
##oser
##war
##crashfl
instr777
environment
##wm
##ethread
##d50
27c
##orrect
2dc
globals
##compat
gett
##cert
instr761
4a0h
extended
##voikko
##123456
hz
mconf
##tooltip
ajmessseterr
ajmesscrashfl
##parsec
12a8h
agot
##idge
vectorbase
instr747
pu
a18
##anode
##e88
sorted
adelete
rsa
##pd2
tmp10
##ces
href
##imate
bimaps
libvoikko
gradient
205
##ison
signed
seriesdb
persistent
aleft
##alias
instr816
##edge
ajlistgetlength
qlistwidget
a00unitsmnodefs
xtcreatemanagedwidget
recursive
##intint
##srv
allocatornlohmann
instr751
##incip
instr787
aok
wl
##fields
0db8h
4ac8h
##printed
heaparraydisposer
bluefish
##ofilter
digits
choices
leg
##radi
131
picture
utility
restart
sleep
##141
instr756
arameter
##vtk
ajlistpop
authorityepsg
##iator
##cnt
cid74
11b
setitem
##irectory
##reset
aactivate
outname
0d98h
##apsed
identified
indexname
extensions
aoutofmemory
xdr
##final
##123
instr749
ncx
##lst
geterror
##lier
rqs
instr818
getname
000
a08
abr
override
0dd8h
##intr
##odelist
110c60
1168h
connp
xdmfheavy
a9122axislatit
a9122axislatitu
phi
##regs
wxbase
##sss
paths
0fffffffah
2f4
##4c0
##qualifiers
##random
adothis
langstring
gaiaf
instr828
khc
##xtv
instr813
##ersonname
##checkbox
beijing
t13
adothisalways
2088h
##75h
127
1080
shepherd
instr779
instr781
ajlistiterdone
##384
##194
instr839
2400000000000007h
##translation
4154
40f
##hausted
419
##signator
nwidget
tn
acreat
explicit
656
51eb851fh
80808080h
##entering
##lk
longstd
str2
abuffer
324
100000
8080h
##47s
##798
##appen
##sav
##444
##pointf
##2011
##program
sdr
##applicati
lr
fgetc
##ofcondi
avirtualofcondi
mismatch
##ole
break
pval
mycontext
0c08h
##uster
acopy
##elocity
lseek
synchron
##join
instr937
616
##recognized
##exact
0b78h
mbr
##complete
fcntl
144h
atry
instr794
##gs8
instr788
thunarx
qdialogbuttonbox
##jobs
instr834
##328
##ini
asio
##setsensitive
15ch
##sect
##streams
hbs
##74532
##ottom
instr776
tfcolor
##calcul
selector
alp
ama
instr810
1282e0
jsv
findand
qiodevice
##memorystream
qgraphicsitem
asexiting
ptable
instr890
counts
##alist
##chang
agroup
glm
qv
transcript
duplicate
##uu
credential
wrapper
##ival
lfirst
6bh
offsets
drm
annotation
identifiedobject
##rase
nad27
1988h
471
29c
##igit
instr771
##high
qname
##dk
##ourn
##encode
qdbusconnection
##cy
sas
accep
0e3h
alibscommclcomm
instr783
##lang
##assword
polygon
##8901unit
instr814
agp
##etuxtv
##wi
##information
##response
##13h
datasize
##spatial
##incipal
850h
drive
formatstring
dcmpersonname
equals
9d0
xstrdup
seticon
##ena
demodulatorinstance
cf0
##erred
##ressdialog
sqlo
##featur
alibssched
##andinsert
half
acalligraplanli
precision
tic
##bidd
##mean
##908
abutton
##oforigin0
##ssh
kodocument
instr824
##19h
##lipsoid
codevalue
cvtdq
rslt
##420
##columnt
tent
presentation
##americand
000000000048
instr866
ayes
dulparams
##abs
za
##identity
##ts
krass
spy
messages
ared
putandinsert
0e68h
gain
aty
combobox
apkcs
respon
##sta
##jpeg
##apps
instr830
highlight
fcinfo
1984
##rangech
134h
##ecodesequence
avectormrangech
##itex
instr829
w3
ipopt
##ither
sector
stringvalue
instr812
absolute
varp
221
assl
6378245298
1cc8h
velocity
rospack
dicomdirinterface
acontent
wxempty
wxemptystring
##sizes
instr820
tla
instr838
##omode
parts
wallet
cook
arec
instr791
alibssgeobjsg
##atow
##scp
pts
aaction
##http
playlist
sensor
kaboutdata
sent
qtable
guts
##temporary
punpckhwd
instr789
a100
##velope
0fah
hp
257222101authority
0ce8h
x0
0eb8h
returned
##strcmp
instr833
cbuf
lgetelemstr
##123456789
aunity
##urop
ang
instr825
tmp9
f9
##install
cmap
##9122axis
##bidden
instr835
0cd8h
##tract
34c
arrow
##reenwich0
instr792
runner
02
instr784
##901unitdegree
starting
levels
xpath
##148
1070h
instr786
##chemede
a0x0
amemory
rr
streambuf
readdir
astatic
pylong
5a0h
##chemedesignator
getfloatarg
kio
mmu
aps
##ised
##6ch
##evthandler
ajsqlcolumnt
ascheme
wxevthandler
hints
100000h
14b8h
0ff00h
arb
sect
3f800000h
decoded
instr796
2078h
findandget
ftell
attempt
329
##ilde
m2
##73h
alibyamisldsdfa
instr869
userparameters
instr858
undefined
ajliststr
afound
##sian
trim
##seqs
##500000
##unca
numentities
large
agn
xcreate
recip
##ups
aoptions
##smodule
ack
dcmpstat
a48
ensdat
dkimf
etc
objv
setwindow
##ifti
##eac
gpkg
cadr
wa
2d4
0d8
codingschemedesignator
instr850
uti
ajlistpushappend
scheduler
##convert
##gb
guid
asprintf
##oplugin
s10
##ingroups
##ellpskr
instr819
##uring
mag
viewport
##veyfoot
instr793
instr797
instr817
wmove
valuebase
##154
major
xmp
##oss
instr811
##curr
instr870
##dde
vec2
instr948
datab
xtsetsensitive
4000000000000000h
128610
1090
grf
click
96h
0be8h
koxmlwriter
##654
aameter
##coordseq
##avi
110d20
9e
##btree
windows
pixels
##xa
461
##vect
1010
logf
don
webserver
##vs
##y0
instr809
tanket
147
##6db
stride
##inga
##defgh
##iodr
asignal
7ah
1800
##h264
##tedit
xyz
##csr
instr894
acbuf
0c98h
ail
b5
adef
##ytes
abuiltin
unpack
mvr
numentitiesingroups
##antt
afailedin
0000000000008
kshared
0000000000404
sptr
allele
##pag
##stats
##pin
instr854
##cancel
##sws
cats
9e8
##authorityeps
##ows
incorrect
2098h
##tensity
##edb
dns
anos
##patient
intent
waiting
0c28h
instr802
instr848
##atowork
afailedinconver
##overlay
evalu
##oget
6ah
kactivities
6666666
awgs72
xdmfgrid
##nu
instr805
deprec
written
started
askip
##return
##xpath
##association
chtype
ksharedconfig
##which
type1
##718
ofp
afailedtor
instr868
##ndup
kfileitem
0b18h
##sup
instr832
arequest
ischecked
tgt
a50
##mu
qjsonobject
0b38h
alibssgeobjsge
unpacking
##origin
##atic
setnl
secret
654
##ustry
startup
ical
slen
minimum
alu
##delet
assh
##instances
instr806
##wait
##til
frequency
2058h
##execd
xsl
instr840
##ushbutton
##zz
instr855
##ecte
alibsut
asn1
faststring
strfree
abool
##istration
##endor
metrics
132
##eded
instr795
encryption
instr803
##mul
##jj
##itch
asystem
##urface
1000000h
2c4
143
instr808
abb
##alignment
uuid
instr880
arel
##tips
question
nwscript
instr841
instr867
##epif
aeastauthoritye
3938h
geno
aunityapplicati
##ectool
a0x
front
posix
000000000043
##atomic
##eturn
##mid
##224
deleterepif
deleterepifowner
fileno
1218h
amer
413
##lemented
200000h
40e
ini
spylogger
instr801
thee
svg
10a8
##xxx
2e4
schedd
just
pinfo
gaiaexport64
##setvalues
988
##monitor
##ural
datanode
1100
abl
##ier
astd
##caught
been
##dest
xtv
nfds
qc
0fffffc
getattr
preinv
0ffffffff00000000h
##treec
resolved
##ecording
dvbpsi
##c00
instr969
instr864
##attern
##mgr
##protocol
a58
##iorb
##gap
0bfh
minor
2748h
loaded
afind
simbodymattersubsystem
9a8
##translatedstring
strptr
9b8
##02
##importexport
stkframes
42f
atim
##aj
orps
volinfo
##extensions
0ffffffdfh
20a8h
mvrtree
indexof
bufp
wattr
unregister
0fbh
970
instr844
##center
setno
atag
exc
1064
lpp
##4x
##choice
digit
##axisy
coverage
aview
##bounds
##resol
instr874
clas
qw
404h
qmapnodebase
instr807
brightness
9f
3b98h
adkim
strfreev
atyepsg
compile
bytevector
1880
##6650
3eah
600h
glx
##wgs84
##dbc
##efree
##ync
abstractimportexport
abstractimportexportjob
triggered
sval
sequenc
instr942
submit
##atingsystem
11c8h
##press
10b0
40d0
liblo
tagged
##schema
ajstrtokennextparse
exported
useqindex
##pac
deriv
##sequenc
##6fh
##erro
##sel
mixer
ofstandard
instr823
mv
instr831
fptr
aet
16ch
##bling
instr947
##ensor
uncaught
##162
asyn
403d
instr859
812
filters
lgetpos
please
psubd
same
egg
qstringq
instr910
ftp
repeat
3898h
269
aall
##69h
mkdir
commandcost
mirror
##ks
354
##meaning
secure
buddy
engines
instr836
##delegate
instr827
rng
000000000008
##what
andnps
near
scop
##erreader
##vlc
adapter
##sequenceinrt
##slider
bessel
enroll
permission
asearch
##diff
##emod
instr837
a11
0fffff
1018
setchecked
c3
fwactivities
##003
ftus
d40
controller
a2c
gamestate
##exhausted
##mpar
0f28h
##serror
alocal
optlen
maxsize
codingscheme
instr878
cfdg
instr821
addps
##bt
00000000006
199
instr860
ctxt
xmount
##viewer
asetting
9a0
##eterm
##unning
1248h
##ws
142
qspinbox
qtab
qfiledialog
kwd
instr865
##gnum
##tof
##iction
writefds
setopt
achanged
calculate
##regate
fwrenderqt
xdmfitem
wxevent
slepc
##mission
apre
searchcond
alock
gaiaappend
7ffh
359
##dump
439b
##tionbeam
aind
544
##ellpskrasst
##mx
##complet
##osition
hd6
hd6301
gaiad
optname
554
##iated
##244
##archiver
wxgetapp
afailedtoc
##f5c
ranged
qvboxlayout
sha1
aevent
pz
11e8h
tak
##ffffh
fq
pbuf
a60
geoscoordseq
512
10b8
##entralmerid
##jected
instr872
0a98h
hashing
bd4
instr899
##ellpskrasstow
##sin
accuracy
instr845
langstringconverter
mm1
5ec
instr851
0cff8h
##balance
##byname
##uthorit
9d8
854
820h
instr877
##defghij
##commands
fu
189
664
##bch
##7fh
instr862
except
xlog
##201
safefree
##wa
##134
reallocdata
lwork
1288h
without
271
reject
suspend
dcmunlimited
##nit
##ibe
atofiteratord
instr846
qstandarditem
##restr
a8901unitdegree
##8901
aer
ajgraph
##ained
##etsc
4dc
673
instr879
horiz
##dch
##enumber
##andsize
4030
3e7h
garmin
##nodelist
##3333333333333
20s
##clean
##1984
514
anote
##7019
qpushbutton
##dicom
kplugin
##real
cbor
kstandard
0c9h
##datacon
990
gaiafree
instr842
##cannot
amessag
##procedu
instr928
int32
captable
pcmpeqb
wxfiledialog
tabs
##focus
##codes
worker
04i
codemeaning
aauthorityepsg6
histogram
##thon
##298
connections
##uled
135
plane
##attribut
126
155
374
##ebar
transformation
arraydisposer
##trad
instr843
astatus
aqu
1ea
##137
##344
plus
substring
pfile
##ats
xtsetvalues
##subgroup
e9
ossimnotify
##etter
suggestion
c68
1924
instr852
istringstream
##grad
instr915
qfontmetrics
0ae8h
compressed
ups
instr849
gass
##ubi
##gtk
memoryexhausted
##textedit
instr861
instr826
##ellpsg
instr853
151
##equal
##748
rotate
##defghijkl
strtoul
setdefault
codingschemeversion
qmim
1528h
aund
isspace
##sient
ajtext
ki18nc
13ch
nifti
##itu
ascript
66666667h
errorcode
1a4h
overlay
instr917
acor
##33authority
##drop
strsave
##daemon
cubicsdr
##sical
edget
##lut
##decoder
flow
##sto
##safe
arow
##exist
overruled
abuiltinprocedu
811
##uous
524
mpeg3
charsprinted
adisplay
##uer
##ewidth
##colors
aback
ajlistnew
instr856
i18nd
##ecrs
1b78h
41b
153
aformat
##656
ompi
expn
##ories
fvwm
parame
##15h
3908h
0c48h
##cpu
##treat
##oublequotedsql
gaiadoublequotedsql
194h
##mng
##ives
2fc
##oidg
##ln
##outbuffer
0f78h
##iminant
##eaudio
qdatastream
##ares
844
0dfh
##618
adbusdbusmessag
cir
00000000004c
dicrim
dicriminant
##general
13b8h
3fc
errstr
##datacontroller
##nel
##03
412
kjob
0c7h
261
drmaa
emptydefault
spell
until
areceived
655
pkey
created
275
##oread
mellon
##ons
referenced
##descriptor
vertical
parm
105ah
beginv
setd
printfmt
setsize
8000000h
instr916
ib
instr875
4f4
van
##simple
##uter
ajfmtprintapps
treeitem
errh
##dataexport
##paramete
ensdatabas
##shift
dcmqueryretriev
##signature
##679
4ad
instr888
instr881
postgres
qsize
ad0
##127
glvertex3f
##ling
spawn
gptr
alibsutis
cp9b
##nm
ajlistiternewread
hour
3e4
##oster
##13a
instr898
##tresult
##173
##138
raster
progname
prefer
localfile
cprintf
9b0
plot
##disable
1c28h
3ac
000000000045
invocation
##avior
5bc
##vehicle
gotoitem
##arke18
##platform
sqlc
fun
cmpltsd
637
instr900
dbsync
ckpt
3aa8h
1de
processor
evalcontext
3ad8h
##saver
instr857
hashingstd
##speed
tooltips
lsetstring
asv
##ortype
base64
aussur
instr887
bitb
##conversion
##annotation
policystd
instr863
dirty
instr920
##estyle
instr950
0b48h
10d0
##ontainer
2x
leaf
vec1
##ebug
10d8
pyeval
aussurveyfoot
484
instr847
anad83h
aglobusxio
bsr
dot11
qlayout
anorthamericand
##ce8h
asend
instr873
asrccap
releasepointer
40b0
autoc
##2799
##distance
instr885
##eresult
achar
getnext
##seg
omniorb
mic
##bca1
##jo
journ
0000000000415
##timeout
aremov
regexxer
##uls
##omatic
82c
imlib
1198h
sight
##imiz
##surface
3ff0000000000000h
5555555
nodetranslator
hts
instr944
##blk
free1
instr914
##wrapper
##284
555
schedulemanager
era
asav
instr908
1500
cvar
##02x
xte
##allocate
ainsertsoft
##grp
7c48h
533
##partition
##inger
##oomany
##avig
##rece
13d8h
instr882
analysis
32c
instr883
##emove
batch
47c
ends
0ac8h
##fce
cd8
encoded
walk
instr892
afileslinedunca
glen
instr930
##mesh
##ofobject
parsingexception
##prod
0ab8h
nodetype
instr922
pout
667
alarm
instr886
instr934
creating
##jump
dset
1080h
light
##trac
gaiaalloc
instr904
instr913
##inputstream
9c0
dcmobject
yyl
tabpage
gaiafreegeomcoll
nin
wy
##itter
wgs84
toutf8
##background
##plac
311
a80
a88
##ontal
gio
##etypes
##allocated
passed
4f0h
##tank
sidebar
##elow
##marshal
data1
3cc
period
574
dyn
4fc
1118
##3widget
0e98h
##infos
openssl
##eload
ol
instr935
qxml
##mapping
adev
##imension
##desktopport
ste
tob
existing
##bucket
asw
rotation
0c58h
##fam
numberofbits
stringsource
12f8h
qgeneric
bpp
14a8h
401
instr924
##chan
wsc
##145
##snprintf
hmac
sps
ainst
7fc
instr884
##inread
xc
##ba1h
instr876
x86
##642
##sem
##fwdata
alength
ninv
432
pdest
##221
##cfg
##igot
imm
##emap
164h
dcmdata
##scu
brand
processing
19ch
10c8
effortcost
##b08
i1
xl
8ah
##isz
vaapidecpicture
0e04h
##wsws
hue
241
##144
sbuf
activityinfo
##way
c5
apy
instr929
authorit
vaapiencoder
rum
ara
##imagesequence
pyregf
##728
##rot
##tral
##onder
instr918
minus
##cs2000
aicon
instr871
hlslparsecontext
tar
slp
829
##400
astream
instr903
vrend
##697
instr946
##cos
ans
##popup
6ed9e
##handled
3e9h
translator
6ed9eba1h
shaderqualifiers
165
awrit
nasm
instr891
##timer
0a88h
moving
parsed
9f0
words
a90
##ofs
instr893
chdir
polyg
adj
logbuf
##ana
##7109
##arguments
##boo
##prim
192
instr933
instr905
vrrender
33c
tint
660h
getkey
trying
west
5a82799
5a827999h
outer
localfilemng
tor
signo
##edron
1108
43c1
##isc
route
610h
picker
param1
processid
##768
byteorder
325
aright
##opend
##olo
ajerr
dicomseries
water
722
4a68h
atup
##ypointer
pai
0c000000000000000h
xdrs
##0008h
##hit
envelope
hu
7338h
longlat
10e8
rlim
84c
kb
##aff
aoff
getcurrent
ad8
vd
instr889
##acs
xdgdesktopport
xdgdesktopportalk
##station
bn
1228h
opencc
##vdb
##a08
instr895
##metre1a
instr912
stacktraceparamadd
inser
instr936
qtabwidget
##bis
instr909
alignmentflag
40e0
instr896
1120
hr
##parsing
##aseadaptor
##xeast
tk
##erv
##nstr
esb
cls
4aa
qsqldatabase
nu
relat
xdmfattribute
##fragment
56c
partial
##tolog
##726
xdmfheavydatacontroller
##cha
##triggered
instr925
##lesd
odd
updated
2048
setsockopt
adaemonsexecd
##agetool
a68
##hist
##bra
acanno
##white
instr911
discriminant
##compo
##stri
##ioc
##oretri
your
afl
aillegal
ainsertsoftwsws
thestatus
invalidate
##listd
52b
##9996
lg
513
##sf
##eli
0e58h
mrb
timed
##3ch
outlen
deleted
pps
##elabel
30000000
delem
aerrord
tixmlnode
##dg
redraw
4a4
20c8h
commandline
instr968
339
##icient
##b128
passwd
tmp11
xenc
fore
instr902
tbl
##758
171
1db
12b8h
##184
a29
864
instr906
##66e
moserial
fav
instr897
##antic
9f8
instr1258
atop
sess
xmin
instr901
ri
##erencesequence
##cron
audioengine
strses
instr960
aprojlong
instr919
b98
1838h
stacktraceparambuffer
instr977
instr958
xdraw
##001745329
aspos
ascal
9698
wxmen
##unication
##erequest
##ivalent
catd
##ationals
battery
ac0
ael
##cdf
ceres
##whichisz
asposwhichisz
asposwhichiszut
161
##placement
##arts
stringp
atool
instr938
1fffh
##estep
acannotopen
anumberof
ablock
12e8h
##y00
##6eh
bytestreams
1278h
variables
0f38h
##closure
argptr
aparam
pconfig
atotal
instr907
canonical
qgenericargument
errorinternalstate
1d68h
ainternalerror
##estack
##neg
aens
devic
##member
sizer
##cpn
hgroup
collect
335
instr939
secondary
aerrors
103h
624
1c4h
46c
##alle
##aul
lcreate
cookie
instr972
getm
1fd
532
compatible
pwd
adi
ceil
coms
instr932
##volume
##440
##romisenode
anv
##elementvalue
xdmfgeometry
40c0
validator
45da
##emoved
0c88h
gray
##boot
logfile
aclients
721
ajtablefetch
pduoption
ce0
dash
dbx
22023
permstring
gran
1972
##oval
shp
##aged
framework
vc
10c0
##printer
instr940
##binary
3ec
175
stringdata
##e8e
##cons
fa6d0
##ddd
acal
sqli
##referenced
##primemgree
##oconf
aarrayviewconst
##ina
lograngemax
declar
##480060
detected
instr927
mimetype
##bed
dimensions
162
##iet
lograngemin
4399
sconf
afp
5a4
unbound
giff
pipeline
##messagedialog
##wgs
ifd
curve
##99h
##atep
1528
dbl
##ecc
##ship
##aw
819
instr921
a04
instr964
##pen
loginternal
c48
##tooutbuffer
gaiaappendtooutbuffer
hosts
there
instr923
80f
732
sizes
cf8
ait
##hits
5c0h
##aimport
instr954
packed
replacement
dcmdatal
dcmdatalogger
33d
834
##utho
##scalarvalue
ab0
0000000000403
b30
tmp12
0abh
itm
##latitude
aprefer
##oplugins
##flw
10f8
##adsp
tconstunionarray
##conflict
##ainwindow
cdb
vide
recording
##ims
##inser
reserved
##101
##verb
##lp
ude
ajfilebuff
memcontextswitch
##orry
instr970
##8901unitde
##aac
dsrdocumenttreenode
17b8h
closed
lptr
kplatowork
ossimimage
ellip
##bif
painter
consum
avectormrealloc
ajacdgetboolean
sta
instr953
instr980
##ularexpression
c38
15b8h
gaiaimport
3003h
##ament
1517
##js
gmt
##etooperator
relatetooperator
catgets
instr973
##pix
calling
spigot
pshuflw
kodp
windowtype
iodcomponent
templ
promiseget
coord3d
glenable
such
coeffs
43a1
aupdat
pal
227
1110
##ells
ahandle
alibsg
263
fwmemory
2148h
asu
1e78h
##rm
libvlc
4170
3d4
##wkb
openfile
ep1
infos
85h
gi
a33
instr959
##ished
k1
0c38h
2deh
openttd
ensdatabaseadaptor
67b8h
xget
##63h
dataelement
aparameterfalse
mdb
0fffeh
composer
##queu
subgroup
instr943
amap
##selector
1012
wpa
instr1048
##condition
9e0
instr990
##d4h
##servic
gamma
##158
ausages
divpd
apos
80000h
migr
ajregs
ajregsubi
##isk
categoryname
##history
fildes
##delay
t14
redu
seqreadline
instr955
flash
35c
aprimer
525
regexp
movlpd
b10
wxconvutf8
instr945
##297
##itudenorth
instr967
##terns
kconfigbase
instr982
##mapp
instr963
aglobusi
copyright
##border
atoggle
##pread
instr931
enss
rpc
freetuxtv
##team
kxmlgui
##222
qtablewidget
instr975
relative
aude
##178
dcmdataset
##lf
635
5b4
##ydrog
##rgb
lok
##eevent
##refresh
xap
401h
etrs89
a78
mach
cld
workpackage
1128
##sdisplay
wake
instr974
valueerror
anchor
##gnom
0e18h
qca
##strbuf
alibsgdis
settooltip
instr999
creation
doublefwdata
kmessagebox
##processor
824
##defa
aprotocol
##cer
##0unit
datas
apatient
1983
aepsg9122axis
aepsg9122axisla
aedit
spac
##authorityep
glflags
##objectpath
##clip
infob
anad83n
202
instr926
1158
thority
b00
feedlist
matching
##aram
instr1354
opening
paint
185
b84
6b0h
sending
codevaluetype
ae8
##bp
##uniform
salt
aclientscommon
b8b
athorityepsg
aprocessing
aprojcspulkovo1
##connected
ausing
ru
10e0
needs
##mmar
0ffffffc0h
##backup
736
normalize
##sisnot
instr978
##agg
wsz
aper
addcod
oom
52c
##stage
residue
6264
0cf8h
currentindex
xmax
fullscreen
instr1000
dtd
181
##99433
##axi
instr962
416
air
##functor
##channels
##eries
getnamed
ipv6
scsi
glstate
getline
##busy
dcmiodutil
instr994
45e
##datumn
##renderer
different
kost
##inval
##quad
4000
##scalef
##clas
##extract
##1972
escaped
##cript
##iddle
0000
metac
##ategy
credentials
getn
instr965
postgresql
##ebauth
b90
##744
replay
i2
0f18h
expir
##applet
563
##c70
xcb
avatar
areal
corrup
reload
##schedule
##onum
##ecmd
0f7h
iptr
##187
addcodeline
aa8
20e8h
roster
##lat0
##quired
##elog
adegree
##modify
site
instr1016
icmp
kpackage
##002
##mainwindow
het
##982
ite
##intensity
pooltype
instr971
yyss
startswith
##234
##printw
anad83nationals
asf
lineptr
instr1020
vsnprintf
a9001axis
##55h
instr961
tg
6e0h
triang
instr949
42000
obs
xarchiver
aclarke18
3fffffffh
4fb
##strument
3f4
af0
psi
##ahedron
illegalparameter
axi
authorityfactory
stroke
exe
uiwindow
limbs
ordering
0000000000010
male
##e4h
covar
instr1015
231
##vrrender
astandard
atmpfsvrrender
atmpfsvrrenders
##itional
191
glbind
f98
minute
ncio
##spn
249
gaiaadd
1fffffffffffffffh
krenam
petsc
15a8h
0fffffff9h
##33333
##managechild
yytext
sqlite3vdb
b87
0f08h
81c
4269
##rtionbeam
##142
af8
##password
apost
wxth
##thing
ellipsoid
acurrent
##easser
##ereg
instr979
rl2
instr952
##encryp
instr1024
##definition
##detail
ae0
##bytesleft
instr966
checkelementvalue
aorth
textpoint
psrld
typeid
kdir
wxbutton
323
00000000008
##146
adbusdbusstring
wxtheasser
wxtheasserthandler
aso
##d08
adbusdbusconnec
ajstrgetchar
83h
aopend
reporting
fifo
pyevtx
4559
##low
defval
##2str
##flo
tmp13
##samples
sheet
fileline
10a
tupid
20000000h
##states
triangle
##air
sex
nextnode
leb128
11d8
266
4bb
2400000000000008h
lgetdouble
##lose
535
##258
##lookup
acr
##9df8
##devicesequence
rst
##544
ageogc
xbaematrix
##f0f0
##tcp
##c10
1508h
##004
##89h
6e4
bra
55555556h
giffile
instr1010
asds
0b28h
aa0
580h
drumkit
b08
##eferencesequence
capture
##fixed
instr997
l2
waddnstr
exce
anal
implicit
generated
##bum
trash
38e8h
caml
0ff0h
10a0h
atowgs84
##sician
a98
ahttpww
##creat
xmlfree
20b8h
avail
##trn
filelist
7ffffffffffffff8h
##sibility
##890
ticc
vor
##utor
##she
newname
atoomany
users
b18
##lev
scrollbar
##378
xslt
##cf0
##286
##esource
smalloc
0ffffffd0h
594
ab8
ignored
3dc
aellpskrasstow
aellpskrasstowg
aep
##eattributes
wxlog
binarysink
##rowse
677
##470
logerr
aaxislatitud
aaxislatitudeno
599
##gobby
caller
##156
##a66
18e8h
##398
201
closing
ajregexec
##watcher
mg
sam
krenametest
aignoring
aunsupported
gpg
cross
instr1018
newmat
4020
instr984
14b8
mm2
##ference
instr941
aof
ate
exo
429
mous
53c
vpp
nss
dynamicvalue
ajstrappends
1ef
wxxml
wxxmlresource
ymax
instr998
##ecolor
acancel
chptr
15d8h
##roxy
##f68
##ummary
2a38h
statistics
alloc0
##dm
##lision
##9ch
##dom
##characters
##abet
sfb
tables
##modifier
##contact
xapian
##essa
##658
ah265
abus
instr1029
ac8
##1942
##fx
##opent
ensg
oflistlink
mtx
##e44
267
331
##978
aand
h265parser
ah265parsercpp
20f8h
ausrinclude
operatingsystem
2048h
344
instr981
ipv4
resolver
##ecess
unitstat
##environment
string2
localtime
0000000000412
stick
##ables
##png
##yl
2030
memchr
##348
aexec
mapper
##onassert
wxonassert
##ereference
##100s
instr1040
oct
instr983
eno
13d0
##206
inq
aalloc
##htt
##sponder
##72c
navig
##7bc
##treg
##evic
##34h
asound
eptr
3bc
anop
c78
instr956
##axisnorth
a12840100085
fund
pmt
##browser
0eeh
##ief
0d58h
0b58h
##666
##gdi
504
##omcoll
55c
email
instr957
vl
##218
instr1012
##unicode
88568h
instr993
##omb
getsize
estimate
##atu
sketcherminimiz
freedata
d3b
7fb
cent
##iot
b20
##unique
754
datap
##canf
userset
plp
##versions
quiet
qrectf
anod
##rectangle
9999
ng
upower
##5ch
soup
ajlistfree
avalu
##a4h
triple
##isation
##e08
##10110
1d4h
bz
holder
bufferobject
rlistscalarvalue
instr1004
writable
pvalue
aclose
spectool
checkconflict
6388h
s18
45d
b38
##mtp
atmpfslibs
communication
gettype
instr1080
ajreadline
wxfont
##ffffffh
454e
0ea
challen
checkvalue
##measurements
##pending
##ips
13c8h
ba0
qrstat
stagetool
stagetoolow
aport
##484
instr1034
alast
loss
oflistlinkbase
##irection
13f1h
5dc
##forces
ditem
##etermin
statemanager
rss
ajfileclose
b78
##lab
pcre
zer
00000000001
##ypes
afalsenorthing
instr976
425
textbuffer
instr1030
##missing
##notfound
##strin
usleep
ater
instr988
1ed
aip
instr951
defaul
cum
##une
##v6
qregularexpression
flt
##parallel
lgetnumberof
724
cid7469
##318
384
instr1022
varid
##c20
src2
##8bit
42b
b6
adevice
square
routine
mar
edgetype
d5
instr1033
instr1014
candidate
ping
3fch
10f0
##behavior
genericintensity
genericintensityandsize
instr1023
##axislongitude
##internatom
apulkovo199
vaapidecoder
blocking
3b9
instr1032
qevent
##3f8
##c50
ee
43cb50
xtfree
instr1019
src1
##modified
##mlink
7f4
##iling
geterrorstr
h264
##778
##tostring
839
b28
##c08
pur
rn
intn
libr
##gnome
2018
quater
4dd
udev
icinga
89h
vad
fundament
##lied
recurse
##proces
t15
rc1
840h
bf0
nof
##feh
##rowiter
##3333h
reserv
##spx
aclientscommons
encrypt
todouble
foo
locationdialog
atofiteratordrt
genericintensityandsizemeasurements
676
##icom
##7e50
jatep
1208h
519
##chooser
getpath
##errno
##etoken
ainteger
833
opened
instr986
4463
anetwork
instr1017
##available
qapplication
instr985
1false
clone
instr995
alibsschedsg
instr992
instr1055
b58
b83
21a8h
##df5
##4f0
##geos
instr1021
abbrev
upl
paramtypes
1538
btn
##358
fscanf
qstandardpaths
sincos
##quivalent
scores
##demux
instr1035
##piece
##iph
##resize
metric
commoditiesint
instr987
errorf
data2
prior
209df8
##hints
206550
##itution
0c0000000h
accounts
20ad4c
ny
813
16f8h
##elper
afailedtop
0000000000411
##falsetrue
##pick
instr1011
gpt
##638
instr1058
1st
unicast
instr1074
ossimirect
##1020
wxmenuitem
##vg
deps
##ilineargrid
##2eh
logerrprint
##adding
41a
1a9
##onerror
ppl
ajsqlrowiter
##999
##ipment
instr1060
0000000000405
fsw
wxmenu
phmm
camp
853
1falsetrue
559
instr1160
transfersyntax
1418h
##vity
getconfig
strch
##ddoser
##degree001
instr1008
vector2
1190
transient
##293
projstring
rew
doesn
41d
##sop
ba8
clr
##ests
htt
##corr
##reater
macroc
439b50
##reator
4ce
instr1002
##abber
##stride
configfile
##f08
dup2
734
awidth
##pret
instr996
##wav
2058
instr1028
ymin
0ea8h
instr1027
slave
wlex
1f8de0
internals
##3333333333334
229
##7265
wxconvutf8ptr
instr1009
forms
##defghijklmn
findoptionmode
1130
##cale
instr1006
ainter
graphic
1150
lgetnumberofelem
0aah
##mor
glcolor
21a240
instr991
glurp
##columns
##subs
##role
quad
##103
ig
aemb
bet
c18
1958h
0b5h
xmlstrcmp
bb0
mq
xb
##glslang
5e0h
##614
excl
4ba
##cd0
14c8h
symbols
##requestpacket
krename
pinstance
discovery
##lis
preset
gaiafrom
##6c8
##wise
useconds
5cc8h
8fh
instr1070
gametype
treemodel
afilter
getinstance
##spectrum
nan
##ibr
fundamental
dstr
intl
17ch
##omemo
##erve
lz
tmp14
atypename
##2e8
259
instr1025
adec
aretro
##vo
asrck
crequestpacket
##ddh
##was
##loat
##alloca
20ch
wxstaticboxsizer
ajstrnews
0000000000416
##shar
##mak
aerrorwh
stockid
afirst
522
##restrial
1230
kx
tlen
##acct
##elay
5cc
41f
1138
promote
sizeof
##odefs
msk
instr1003
1478h
instr1065
##ymbol
pimpl
xalign
##b4h
##a68
83b
amessage
cts
amon
aexception
bc0
instr1005
630h
##veh
ener
neovimapi0
avoi
1b38h
2158h
##inity
instr1088
textref
sharedptr
instr1044
med
##owrite
apt
afunction
autos
##inal
instr1026
kpluginmetadata
anvim
instr1039
here
instr1038
516
##14h
##src
nal
1148
##8859
minss
instr1069
##boss
glwwindow
pgc
14d8h
pcap
c40
##econt
2028h
4038
0bf8h
xmlns
##assembly
##0x0
instr989
instr1001
5b0h
4158
##19c
pct
##reed
adocument
0ffffffffffffffb0h
bstr
aprojlonglat
11a0
areport
3fb8h
##faces
1ach
##results
137
##vpn
accessible
v3
str1
##tls
##gamma
##okey
##241
cc8
wxmessagedialog
astorag
##pcc
##ulseaudio
aatr
##using
0f98h
newstart
ather
instr1110
fft
logging
##b78
palloc
votem
botai
0ed
each
4061
##arc
abe
winwid
interpol
##uint32
fixnum
amenu
epeck
572
hyp
obo
uindex
example
stateimpl
macrocommand
##ingbox
##modal
825
0fffffff4h
vartype
du
graphics
##getr
##arrow
##ecomm
qh
##c90
##ands
afull
##102
aerrorreading
pto
##jit
brush
476
##ilview
1866
##ddr
asunabletoretri
##96012
##anned
aprojlonglatell
sile
##iki
##72h
fd2
5d0h
asrckj
xmlnew
2040
ags
1954
aenter
ttl
product
adone
aast
##rint
cvtps
amt
transition
instr1059
fontsize
##uthori
supp
xpos
##hd
##cb0
instr1054
afailedtoread
nullptr
nlat
adding
##33h
fromstring
439
86c
apulkovo1942
pslld
2d58h
typeerror
measurement
##allocati
0ffffffe0h
dvbchannel
##marks
instr1078
##430
instr1013
acreatetable
objec
cvtps2pd
##tot
##icast
0000000000413
##guiclient
##break
##meridian
##olist
##accum
##vals
##kind
correct
##coordinates
again
htsmsg
##typecheck
##utput
srclib
##scope
aquery
##stand
##tags
dbf
pylist
shf
funct
##icks
##54h
activated
movhpd
tiff
c90
##3a20
addsubgroup
##ster
settype
refseq
treen
##450
offs
##rate
drtp
pfh
14f8h
instr1079
azn
2400000000000001h
##orite
##arse
indices
particle
industry
vendor
advance
12d8h
##procedur
##coun
international
encrypted
alibsgdisge
cycle
694
##pred
83c
getpw
qxmlstream
instr1007
4180
dam
##compc
##isp
dependency
aed
theobject
touch
getnum
##plug
instr1067
our
##atabase
genl
echo
lato
##quisition
##skip
f64
653
cmpnlesd
7fd
rity
dbif
arityepsg
##cccccccc
town
##norm
amodulesp
##zer
##ainfo
173
amemoryallocati
bce3a0
313
arealloc
instr1075
ctd
##econstruction
0fa8h
enough
fileformat
splay
172
58e8h
setlocale
##blocks
##6b8
adbdbard
ca0
##0xx
snapshot
xmstring
##oge
##polygon
1718h
errval
sense
invert
getthread
##iphy
##149
ref0
kv
##seqregion
##trunc
ancestor
##ffunction
decompress
2070
dbname
##ec4
instr1126
##i2
aprop
256
son
##even
##keep
instr1031
atmpfsh
##xn
##000000000000
##itemm
##ftime
idx2
ausage
##socks
##xp
targeted
2068
##ddosereferencesequence
##strea
currentgroup
strncat
##listener
c58
tmp15
instr1062
7b68h
cntl
awgs1984
0000000000418
instr1050
59d8h
##ecause
goal
tur
instr1068
recipient
aconstchar
634
instr1064
##escap
gzwrite
e5
loginternalfmt
ox
##00174532
instr1063
1001h
9003
##syste
plink
nump
gbl
abottom
classes
##129
python
pick
qtemporary
elems
isp
shufpd
82b
1a48h
tpr
1198
kc
ajstrnewc
4100
5s
##inux
graphdocument
1f9830
instr1056
6c0h
4c4
afre
0dc
instr1036
quota
##sibling
859
integr
##ddas
qs
instr1099
##hex
ahead
energy
a16
instr1072
##phrase
##bands
##fai
flip
45e3
##667
d35
entropy
835
checkbox
##objects
163
qep
promisegetconstraint
##responsepacket
826
functions
2050
##ellpsgrs
##grf
aerrorin
yylval
btv
##100h
qdatekplato
##106
sun
13a8h
0bb0h
instr1097
services
##boostd
quantity
subps
28e8h
nexust
branches
c98
ino
spinbutton
##oming
cresponsepacket
##freq
seen
instr1047
aob
lfreeelem
aassertion
##ighb
aauthorityepsg9
4294
quot
assemb
instr1053
##gd
##does
837
setnp
##fully
skipping
0ffff8
pdraw
ajstrfmt
##fc8
stamp
servic
agstav
dd0
be8
##transport
instr1170
subtype
glget
instr1052
ranges
gstav
optionentrybool
w1
tt3widget
##7475
compose
777
##wsg
400000
##ful
instr1043
ads
##resid
48c
achickenbase
69c
2038h
7030
warnx
atypenameboostd
kauth
20f8
petrad
##accel
815
##obutton
instr1073
##ktime
##unce
679
195
kxmlguiclient
332
abin
instr1087
1518
##hol
##7ch
gg
##wt
4051
instr1041
kwallet
822
maps
816
##ssc
libsr
colon
ajstrset
uca
##robb
##cover
##7b8
b48
##refix
alibevtx
##fd90
##fals
832
aunabletoc
ageogcs
136
0b98h
43a
##alph
##4l
##btre
instr1061
827
421
instr1090
instr1135
foreign
##7e8
cbk
cvtdq2pd
##centr
1518h
##robbler
32b8h
paramete
##directoryrecord
blend
##camera
5f4
asession
strlcat
dptr
##emote
##odf
##204
4160
c88
##ecommand
getnamedchild
0e78h
gaiaallocgeomcoll
instr1045
##yo
upload
##tokenclass
ssid
b40
isset
notes
63c
cycles
adinoplugins
##uthandler
fallback
mmgr
00000
1140
##eaddr
nodename
simpl
##636
##hid
patterns
cargo
##geod
cause
pimdataexport
poolitem
##physician
gltexcoord
##991
asrfi
numbers
##shadow
##2k
##552
votemenu
##lsl
sigma
##185
codeset
instr1094
0000000000417
topology
##posit
##imagedata
##nnptr
atan2
coordinatesystem
4003333h
zi
810h
continue
ca4
##554
astop
##provider
a220
instr1066
ainitial
coords
dcmdirectoryrecord
xpm
asequence
kop
instr1046
##ima
##xxxx
##adi
filesize
1160
instr1098
deprecated
##346
1b4h
instr1037
562
##c40
239
keyfile
203
asrccapn
##keyboard
##marsh
storageproperty
3b68h
539
##ae8
##rem
4190
backlight
1170
contactgeometry
aenable
gamepad
aman
##xception
c50
c70
instr1188
##clicked
##faile
setcurrentindex
tprtree
##analy
instr1042
##forma
instr1130
pause
##depend
instr1439
##zoom
nexustoken
8bh
recent
instr1057
mob
b60
45e5
##olution
517
b870
charunsigned
##25199433authority
##olygon
790h
instr1049
##e960
40bc
asentering
padic
scoped
459
instr1106
20e
##191
##int32
conditions
instr1131
nomemory
b70
howm
wxstatictextnamestr
b50
uip
promisegetconstraintas
aaxis
aaxislongitude
aaxislongitudee
##wor
instr1139
7bf8h
getuid
##elab
21d8
0ffffffeah
savestate
##eamble
##696
amalformed
kwds
##contain
instr1102
ea0
64c
itude
ks
xtdisplay
##010
tolocal
##stored
joy
##onot
agpm
newstartdir
instr1051
getid
4130
3133
instr1111
1008
discard
aarg
rgba4f
##tresource
##make
addattribute
d00
getthreadpoolallocator
propertyset
##3105
5f0h
below
##olver
##corner
##ci
c20
11c0
ccc
opendir
377
##ktype
uint16
instr1114
errorhandler
strv
##sampler
dfsg1
1168
##shape
rejected
instr1262
a42000
instr1162
21d8h
bbox
##fast
29ch
instr1125
0cb8h
##esettings
clockobject
##eant
gop
##ada
##a6634
0000000000409
##diag
##progressdialog
19b8h
superdata
##issuer
anom
174h
##coords
labels
##termin
45f
384h
procs
memcontextprior
xtmalloc
##capacity
##a48
c08
2078
##25h
astate
instr1144
seat
a000
ud2
45e7
rom
##738
aentry
instr1123
##tries
1090h
bc8
1eb
##cev
##ided
1468h
##ostr
widgets
0d78h
c60
ofmap
aodefs
gethost
serialize
##sourc
styles
require
312
##ccf0
instr1116
##instor
unbox
pgp
xinternatom
xfce4
writeentry
failonerror
awrong
landscape
textin
867
##1a8
##clock
45e4
##lea
instr1077
##templ
##iner
expl
##contex
aupdate
instr1091
##gam
fct
iop
##orn
instr1151
##pla
##c30
##rit
##abler
##children
##p2
##compressed
##534
##cc0
##rox
614
pointerreader
verbosity
##stateexception
illegalstateexception
be0
##mooth
abegin
unode
numbytes
##feed
##treem
##uffer
##validd
areading
2128h
629
4028
##present
instr1133
##forkey
##3a8
##accept
qmainwindow
h1
qtimezone
0f70h
##e68
0ccccccccccccc
2000000h
pitem
##atum
##monitorc
1288
##2519
getre
nbits
apam
jr
locator
iostream
mtime
##span
anoc
eol
hdl
##structured
getfile
instr1084
txt2
asfailed
systemd
plac
aav
exceptfds
0fb8h
2cf8h
gdi2
instr1156
##adel
multiplier
aam
fwjobs
##earch
wan
adapt
agtypecheck
1298
gameapp
##ockwidget
326
##exus
instr1120
categ
aec
aorggnome
515
4062
overlap
hbitstream
hexahedron
agmimeis
aomemo
0a8
pug
frmpr
formatstringbuffer
##ddir
0000000000414
scriptobject
protect
aspan
findnode
aintern
aunabletoopen
ajtextinstor
yoffset
instr1152
ram
inside
lh
2038
alink
pextr
varname
111310
instr1138
##c0f0
##246
##lower
##16h
flog
ni
extents
because
ensfeature
1178
unrecognized
ce8
05
frmprincipal
instr1071
##fetchall
instr1104
##ydrogend
instr1108
dcmscu
##after
aempty
##translate
evt
atmpfshydrogend
forbidden
ajseqset
ardf
recal
##osed
aim
afailedtoopen
b8a
acs
instr1158
##7a8
instr1100
##trast
baseobjectnnptr
terrestrial
##6db6db
##fb8
ajregcompc
pextrw
checkbutton
0a4
due
sv00
669
await
##dimension
d30
punpckhbw
strftime
##644
439990
initialization
7f3
##medi
plas
gate
##tv
##spac
##af8
aunknow
910h
ava
fcn
##release
pslldq
capabilities
##9e8
instr1140
agen
##etermine
psrlw
music
instr1089
20d8h
tinyxpath
0bb
mor
piece
oset
1ce
337
amo
ofshared
tmp18
rerror
cvttpd2
cvttpd2dq
##668
##added
sqfs
##trun
instr1124
avoidd
feh
3c00h
##fe8
##shake
##00000000000001h
cpd
instr1085
ofmutex
43c170
aparameterscale
3988h
instr1095
dvconfiguration
##seud
0e2h
pimdataexporter
1188
##erring
##ious
##initialized
##jingle
instr1081
bign
dcmunlimitedcharacters
bold
43a170
245
##prot
visit
##334
who
4be
0000000000012
coded
instr1163
attachment
0a10h
##x80
4058
stosb
c30
49c
instr1134
aexport
##edatabase
colorset
7f5
##ogle
strndup
resultset
ifname
##eath
scorchedclient
##f450
##epg
40f0
4ff
intbool
81b
##anning
251
4150
amm
1658h
ptrs
frag
42a
##nos
demuxer
instr1127
crt
tlsv1
bb8
##marsha
353
5d4
##edevice
atls
##sequ
aday
e30
855
##namet
vect
ajgraphic
instr1083
nciop
37c
instr1086
utilities
tan
0123456789
0cccccccdh
gsb
instr1122
gldisable
instr1129
##754
chrptr
grant
instr1076
adbusdbusmarsha
85c
b68
##issuerof
ladsp
fwguiqt
fldz
##338
instr1166
simbodymattersubsystemrep
w2
wxbasearray
softwareupdate
##ivery
72c
0000000000011
longunsigned
##7f10
instr1150
4140
0ffffffefh
20000
afloat
instr1148
metacall
dcmlist
computer
instr1092
##01
##parts
xid
amode
dvp
##decl
edges
san
##primemg
##ico
atestmonitorc
menubar
acssss
0ff000000h
eter
declaration
0cbh
1378h
##4e0
wv
cps
d78
gtd
fir
##ween
sat
432c
##ules
checking
##lined
##sequenceinrtionbeam
aeter
1180
##erate
yyleng
op1
cdf
atd
bug
##sph
nbrhar
slow
##blobwkb
lyxerr
##hing
constructor
aerrorinvalid
##ering
##aggregate
tmp16
instr1113
##mtab
gmpn
1068d0
##alian
##uropean
multipart
2nd
7ffffff
mini
nclistget
stored
10313a
106456
##ford
instr1109
##egment
gvv
ascriptfor
binarysource
towgs8
geode
##sds
via
i0
##datas
instr1082
57c
instr1208
charstring
##video
4da
##sbr
strict
##idr
putshort
##quer
inline
ag9122axislatit
##correct
##iteblobwkb
##endian
defer
blas
##wiki
instr1107
87h
184h
c00
##extent
4326
koxmlns
instr1128
lgethost
awebauth
2007
mpeg2
adbusstring
##toge
##rik
##trig
##ves
##238
0dc8h
stp
anad83ns
errorinternalprocess
##ca0
stere
##25519
instr1096
ifr
mm3
wxbasearrayint
targets
##678
logical
backward
427
##det
cit
decrypt
newthread
dxf
4071
##imize
anotify
71c
instr1179
ecode
##auto
4eb
30e8h
setobject
wild
831
##got
##ancexception
orthancexception
llvm
86h
setfield
##trees
9fh
instr1146
hop
823
dead
##xm
42d
##104
apassword
4559b0
voi
4000000h
snp
ahhc
##writing
tline
includ
225
1927
##msa
##console
##econnect
##mmatrix
gas
##lists
3dd
817
0fc
a15
instr1103
incomplete
##245
ajregfree
nesting
qmapdata
alibsutisge
13ech
457e50
hhc
bf8
322
vnd
intersect
##fu
454e50
399
bd8
##primer
d38
##quantity
a14
ncols
##ourcep
instr1101
awgs1972
7f2
instr1105
##regions
##delem
187
723
##a98
hits
6318
instr1198
0a1h
bank
instr1132
rewind
ih
##ef8
safem
00000000004013
##fitx
aarch
abasicstringsub
##195
##fa8
431b
862
##backend
##rocess
miss
e20
splaytree
##ki
##room
1598h
cb8
instr1167
acrea
455
cstr
based
##arp
datatype
range1
alatitude
gig
##lot
amodel
##7453
timeregion
getsc
geosgeom
choose
##646
tmpdir
##6667
cf6c0
strid
##kdc
##signals
replac
instr1155
eas
d3b5e
d35f2
avide
##bond
https
sljit
4078
atarget
boxed
qnetwork
321
vorbis
writex
wsh
instr1154
pimplhandle
f50
f5
three
fprint
aepsg9001axis
##dc8
acont
drtissuerof
qmake
##746
1c2h
mpl
##vnd
instr1093
31c
changeset
##maker
##000000000000h
2198h
instr1165
##968
##mme
596
1fch
seqt
##login
putandinsertofstringarray
iy
instr1178
instr1117
xmkey
##6c6
dbcontext
11b0
seqout
##words
14e8
38c
op2
ik
ttyp
##dattr
1208
0fffffff6h
amov
fopen64
##grab
##rote
11a
aproxy
a12840100085141
##esktop
30c
821
579
##por
##09
mf
intkey
ze
##alen
instr1157
instr1136
outpointer
llu
0ffffffffffffffe8h
##simage
qpointf
lsetlist
afo
cff
gif
viewbase
1408h
recode
sha256
18ch
begin1
fwio
##f4h
##354
744
appres
##remove
math
##dirty
7f9
836
incr
instr1119
##ecolumn
sourcecrs
54c
instr1112
1240
instr1180
4b4
determine
##7c8
10d0h
##icense
0fd8h
##ritex
0dbh
##brid
##fd8
e08
ajstrsetclear
atoggled
qtextedit
##addset
pushstring
ttypeloc
probe
safemalloc
##etim
000000000050
355
##anim
quoted
instr1118
##uting
869
lvl
outputfile
41e
##xmpp
##afe
instr1190
founder
##bank
wxeventfunctor
2400000000000009h
d28
instr1199
instr1173
anorthauthority
edata
deletenode
529
aapplicationx
##ewing
4064
##objec
sigaddset
atari
##wchar
##toolbutton
##istance
0c00h
negative
emptydefaultitem
instr1172
nc4
852
##f98
ajstrmatchcasec
0da8h
523
awritex
0b7h
2138h
106h
aligned
##ww3
##compiler
##gename
2060
links
fold
dvinterface
d58
adelet
slic
2020
ahmm
idx1
journalist
##iosy
##bose
xdmfset
##ffset
awritexfer
beginoptionblock
addon
adbusconnection
instr1164
##econtrol
415400
##interp
ordered
mergename
##rikali
pexpr
##activity
wktformatter
##rank
lut
##mptr
4110
instr1145
coef
4088
0d1h
##ffect
afail
356
622
aapp
5ac
responses
##devices
opc
3887bc
movingregion
2de
##elayout
instr1161
stringpiece
2028
codesequence
linebuf
##ildocument
areturn
##ypoint
ayepsg
##inder
afatal
qtemporaryfile
instr1115
ahtml
pitch
theta
getun
wxcontrol
corner
instr1302
##che
instr1141
##39h
4068
##dbusf
315
30480060
##nsi
644
6breezy
mmu030
5fc
qund
endoptionblock
instr1176
19c8h
pressed
separ
##7f8
##coordsystem
instr1235
freetree
##cluster
10000000h
targetcrs
##veloc
##254
3fffh
possible
dbiflat
closedir
vertices
##25199433auth
a2925199433auth
instr1193
##ross
perms
0ddh
toelement
##fraction
e3
socks5
##alize
6eb
11a8
##operand
adup
mass
rdp
##sheet
nsec
4ea
apc
##bg
ths
2ad
apkcs11
##tm
##othread
awriting
##248
##sevent
4048
##ettings
7f7
##6378137298
configureparams
see
percentage
##sz
##ontend
2be
41e0
##3a6
nf
uxa
##spath
imageheader
jo
13e8h
0000000000017
##eda
##ffmpeg
qsub
##compare
qstyle
channeltext
instr1214
##strategy
##omask
7528
sax
##letype
codesequencemacro
##sqc
nh
##fhw
instr1159
0b1h
instr1194
alongitudeeast
alongitudeeasta
720h
vfprintf
ayou
ata
instr1234
##739
google
##ils
kxi18
##forward
##before
0cccccccccccccccdh
hy
aconstchardbusf
##vhsg
working
factors
alphabet
j0
437
##ism
##delim
##d18
instr1168
flux
##icol
000000000055
##ulat
##iate
instr1284
3ad
instr1227
guess
aofconditiondcm
instr1268
jet
mergename2
##viae
##viaelem
##prompt
0d3h
qprocess
msec
arp
16a8h
inputmemorystream
sequences
4148
800000h
4120
##307
filenames
unicodestring
##marker
##460
##dd3h
semantic
4fd
fullname
objfmt
0b2h
865
##136
a94
714
d10
lgetposviaelem
##f78
instr1149
##94h
##inp
sv02
playing
1000000
##gm
0e6h
busy
accelerator
d48
instr1143
instr1184
bv
bea
##aper
1290
middle
##727
4ef
awps
##a58
restr
gaiat
strbufappend
024
mh
astyle
warts
underline
instr1205
instr1177
ossimd
##izable
buildvalue
cas
##edisplay
1268
agdk
577
rameter
instr1300
advanced
denom
fdc
ssh2
##efh
instr1147
pdev
##oul
ajnam
2276
531
axfce
##gp
1628
1238
e28
##tx
instr1210
addcommand
0cd
##atecreator
##frequency
instr1222
retry
750h
stringaccum
xmfs
##apes
instr1240
##chk
##enumt
##weapon
db0
##eappointment
instr1121
fileinfo
699
aimag
0000000000018
##forsize
4025
182
instr1175
cd0
psrc
##initialchat
11b8
fde
2ab
##trate
##nr
xmlelement
cmpnum
instr1174
manual
pti
a32
nit
pidx
atask
##resources
exon
##3c90
redsocks
instr1169
instr1230
timing
##ecref
xdecref
mutexattr
91h
##refcount
argp
ajfeattable
##d78
instr1248
din
objectbase
##ssoc
1228
maker
ocsp
##3fh
##b28
cen
intnum
289
650h
##db8
mm4
fb0
instr1196
b85
0000000000013
1488h
aglobusix
665
2098
##aa8
launcher
ajstrto
props
1200
avl
keyp
audi
instr1264
2275
##plot
##eselect
aephyis
##331
centr
##ingerprint
ossimapp
ampd
##multip
##628
wcsc
##397
851
instr1137
4052
##uling
##scrollbar
ca8
##2d8
acontrol
45e0
curs
110b20
##notes
##cen
857
##eeh
dcmvr
##troot
0deh
##be8
anam
predic
abstractaccount
ppt
glend
dense
##inpu
inverse
amsg
##versemer
lval
gcd
qflag
0cf
866
##namec
780h
ajseqall
expecting
value1
0e48h
some
d98
11f8
stand
instr1244
##125
setcolor
##handl
ptoken
40a8
qmimedatabase
c28
lenp
vmfs
##respon
ausrinclud
cpl
ball
##504
decal
##a28
subset
instr1142
##grade
instr1213
aaudio
##controlpoint
##scrollarea
a0000
plsc
##bf8
##193
exponent
##echost
z0
instr1185
8eh
aonly
##foreground
instr1153
##activated
incref
autoconf
632
val2
fraction
371
ladd
##tax
600000000000001h
bovo
##ecting
0x0
instr1181
lno
##bmc
qhboxlayout
105h
##expecte
xpf
b82
10624
##harm
2240
##splitter
##library
##direction
xname
qtextcursor
adegree00174532
adm
pane
intq
1f4e8e
##equ
var1
adialog
aph
112h
##oborder
instr1280
##emer
pshufhw
##ttp
##curv
##iq
astringsource
##iti
##pdu
##3b8
urls
recover
##vari
ry
##1f8
##elim
##posix
sst
569
ca498
##e2h
672
tmpl
##verify
##pgp
permissions
ed8
107h
##quote
normalized
instr1186
ncbyte
getlength
snomask
4063
b830
##parseq
##keywords
##licationusage
ossimapplicationusage
##ww3org
##known
ierr
decorative
4fa
2118h
0d68h
criter
ujj
0efh
wxgettranslation
0aa0h
rail
c10
##wkt
param2
##quires
qflaglocation
4054
##sca
##ivation
252
aing
amatch
1994
0f9h
4098
aunix
##olicy
##comment
4084
unodeindex
6a0h
##d68
##271
keywordmap
##regexp
amercator
##gpt
##acket
ifn
##ectrl
##company
##a38
chis
1b28h
instr1218
instr1223
##encaps
atab
c80
abit
lenr
xpe
a3d
screensaver
##dummy
scorchedserver
41f0
6d0h
6668
iadaptor
##223
715
##ewf
mobilizedbodyimpl
truncate
##e18
mobilizedbodyindex
##1b8
trust
e48
afix
seqtoken
##indent
2080
##lexer
deletenode2
qmutex
nonce
acore
elapsed
operations
scaled
browse
2da
nindex
cc0
ahttpwwww3org
##984
kcm
stackage
##126
##div
adir
tmp17
tasks
##490
##stu
##mim
longjmp
wire
pst
fro
jat
30c0h
yarg
grffile
parms
yyp
dcmqueryretrieve
denied
instr1260
##446
##argv
##onom
anormal
7fe
##pur
##itza
2ed
related
mute
tempfile
nextsibling
aundefined
##instanceuid
2047s
##treen
##eshow
379
4db
##uted
##perm
10b0h
##f410
aauto
##tokenizer
adinou
##bundle
##ooltip
afailedtopar
like
##iofilter
1418
way
ajseqgetlen
instr1270
##cull
bcf
exif
4091
during
acmd
##harmace
7f0h
aplay
##studymodule
pmatch
690h
qmakeforeachcontainer
##allocat
callbacks
615
a2047s
43d
drtbeam
normalise
instr1269
reloc
astats
53b
##67b0
instr1232
##2dh
setcell
cclosure
areallocforsize
instr1304
3098h
pnew
##visual
silent
resiz
36c
conference
##chy
aenabled
10624dd3h
iovec
##deleter
7f1
##locator
invoke
166
segments
ferr
ground
7fa
dvbr
artist
delimiters
css
##e28
##iew
pointers
dependents
##9001
derived
##268
buckets
##alty
445
addend
##2b8
ki18ndc
565
3a4
packets
##elements
reported
##calculated
##engin
dd8
libslepc
anorthaxislong
anorthaxislongi
tele
dvbrecording
##eren
osc
asa
0f3h
##izing
##idbody
##oconn
e70
##getstring
qstack
scaling
##a18
symbolic
a22023
letter
0ffffffbfh
qpulseaudio
863
##margin
instr1229
2ba
11d
##eholder
##central
qapt
##e98
aaf
oid
176
##blem
nlon
4065
anad832011
##essagebox
1760
asiz
keycode
readxml
instr1191
aspect
european
curtok
d70
kostore
cwd
agstffmpeg
rtrn
gettag
enstran
sirikali
itr
##ndc
mulmod
3000h
##f58
bitwriter
analitza
7a0h
b8c
3de
##bounded
aoc
instr1171
nz
##erow
##uelem
atcp
##limiting
ajstrappendk
bec
isa
pyunicode
sv01
##hidden
instr1183
##lif
saving
ahtt
lol
000000000010
iostr
4258
0000000000004
few
ear
associated
##small
sticky
##1ch
ale
instr1256
##loaded
instr1203
##p1
2018h
embexit
vid
11e960
##cluded
aapplicationvnd
##couldnot
##ityp
1c08h
##listr
##already
##recur
##553
##transfersyntax
1568
unitin
##article
##ossim
databas
asave
consol
instr1200
glvertex2f
##b38
##rain
aprojcswgs84
##sing
shortcuts
4072
cdata
##icket
instr1225
aprim
##dc5
d68
##aca
2418h
##maximum
##53h
ungetc
instr1182
##acces
##6e5
argptr2
83f
realops
instr1189
thin
projstringformatter
privatecreator
76ch
0aaaaaaabh
tpoolallocator
nice
instr1250
agva
aglobal
aother
1210
tq
ajreadlinetrim
##zwave
1950
epi
##entication
316
obstack
a1authorityepsg
##seriesmodule
##ellpsgrs80
buf2
instr1297
##sound
treemodelcolumn
##b8b
##crete
62c
printed
##df8
acontext
gfx
accepted
##376
dob
amd
##busycursor
days
40f8
##eastin
aarameter
##stock
##togeomcoll
##ddec
alibssgeobjsgec
rtt
##steps
langu
exactly
##4c4
##viewport
##278
nused
acopyright
apulkovo1995
legend
0a9h
1938h
instr1215
##dirs
veh
##subscr
##listmodel
2ee
queues
##psgraphic
aglobuslxio
##ba8
0beh
implemented
getd
3ab
##a78
dvpsgraphic
asource
acdattr
tsc
adescription
ia
##69c
confirm
nchars
##imagemodule
gaiaexport32
ist
submenu
##nsr
icu
awav
##instruction
##yphs
1400
vaapidecpictureh264
paramet
dzen
##literal
fileoffset
openconfig
hf
mspectrum
157
##eather
acap
director
sige
##4a0
##tablename
bsx
##iny
##trib
instr1219
##odecursor
##4b0
automatic
##ccc
7b0h
asyntax
evaluate
##minimum
435
##eee
##omm
1308h
kconfigskeleton
##mall
soundio
divexact
appendchild
challenge
##eld
##keyp
##fromstring
ajstrnewref
1c38h
ccr
3ce
0ac0h
##genericdir
##ouint
instr1220
dos
##dc6
##exon
resourceappointment
4193
731
instr1233
vir
optionid
qacct
openzwave
##arrayptr
handshake
instr1298
1898h
instr1253
24ch
libsign
libsignal
collision
instr1207
instr1254
804h
1258
##rier
##outputstream
##20202020
instr1236
1d1
##urns
nat
##hort
afeat
##formp
aeg
0ff0000h
##riter
193
instr1296
##f48
##windows
e58
aoffset
##eremoved
##assi
##lentry
databasemanager
##utical
1e9
aupower
##f190
0e10h
instr1204
lappen
ntoa
##dot
4074
asec
##labels
##wl
gx
##completion
tparsecontext
rebalance
u1
##filterproxymodel
##345
mtim
##6260
parametervalue
5e4
1948h
instr1303
equiv
acach
astorage
uniform
##submit
instr1217
msgbuf
instr1216
instr1288
subtitle
##erule
optimizer
##harmaceutical
stf
instr1201
lappendelem
aborting
##f38
##els
instr1212
instr1279
2aa
mpdcron
7e0h
##reverse
attack
ml
##emy
##d6h
##626
cfgoption
errstart
trg
##bc8
1841
areenwich0
areenwich0autho
instr1197
ofconsole
##mming
##thy
drawstring
##parameteri
40a1
iodrules
1248
ofbool
wanted
vz
valp
aofconditiond
qmessagebox
quantitystorage
pyarg
##errormessage
##992
##multi
instr1263
##imized
##spacing
2228
##wap
##vc
opacity
##ostack
seqlength
ttf
atk
696
6759
17f8h
000000000054
6fc
##mailjob
##efactor1
1a18h
##strib
instr1245
xcolor
##disk
1bd8h
comments
45f0
addd
noise
xian
pos2
qabstractslider
279
aclcomssl
fdiv
##efinition
gpgme
##6a8
lcopy
##blank
23e8h
4ed
atemp
319
ild
popover
##hibit
passphrase
pubkey
12f8
4039
0c2h
instr1209
##784
0000000000016
##mes
instr1221
86b
hub
##0r
449
7f00000h
1113
coun
instr1243
instr1228
##6200
since
##s5
internall
plen
247
372
enforce
pos1
##refh
11d0
instr1202
ambig
additional
netbuffer
##ilist
getbytes
4044
4de
conflict
instr1330
0ffffd8
instr1195
00000000007
##plugins
2c88h
aunsigned
constrained
gltexcoord2f
2bb
4083
##752
strsplit
instr1211
instr1265
matrixbase
##ecorded
43b
gravity
a24
617
b871
strbufappendbuf
##optio
2dd
avoidkpl
filetype
##kcs11h
extend
instr1238
##person
##bol
instr1206
invok
athi
0ef
##unlock
botinitialchat
4094
##indexin
3c4
##808
##ncpy
##gram
##cev300
pagepos
securearray
psllq
instr1278
##24towgs84
mm5
chewing
instr1272
167
49ch
bare
instr1192
instr1273
fromvert
afromvert
pugi
mdf
##ingfor
0a2h
sieveeditor
ea8
##scopedpointer
365
##iversal
##2a8
##second
##crypt
0a5h
instr1267
##trial
instr1301
taggedobject
1feh
atmpfslibsignal
108ch
getdefault
##ua
4027
403f
43f
##lit
##levels
msgq
cvtpd2
writetest
cvtpd2ps
instr1275
##revi
toler
instr1242
551
createnode
tracefile
album
##scanner
namestr
##scat
iconname
aaccount
##ued
instr1274
instr1187
##override
##sgroup
ahttps
##mptyset
bracket
fseeko
vis
ncells
296h
##emode
761
gcr
aconver
both
alibsschedsgese
nuc
##etask
cmfp
atauthorityepsg
##ores
writetestmessage
##1600
vspx
##2c8
##olve
3000
##dddd
c35
##amd
3b4
envp
asubgroup
##windowattributes
instr1255
0000000000005
856
validity
road
d08
lab
scrobbler
##adapter
drtion
##asetvalues
xtvasetvalues
710h
ixxx
damage
fonts
askipping
##d28
sketcherminimizerbond
waitpid
##35h
aprojlcclat14
##inrt
15f8h
instr1249
45dd
profil
lengths
1024
ossimnit
##unix
##spheroi
instr1286
##adian
##938
1498h
qdbusmessage
45f3
instr1277
instr1306
##wp
##implementation
4013
##extended
dvd
defaultkey
6000h
xdmfgridcollection
spooling
##vicep
740h
2878h
isdebug
xnexus
isdebugenabled
models
##e48
##gemm
##ad83har
##euid
writexml
861
##llx
e78
incoming
##evc
##bam
cfps
##apply
##checker
t16
1218
1d38h
##failure
##debconf
##wither
625
1888h
##eadded
##747
##esetting
least
##blue
tokenizer
ext2
##cred
##sof
2278h
instr1290
##7d8
instr1380
##velocity
##181
716
ktp
40cd
instr1417
##gau
zo
specific
k2
1620
##dlg
constraintimpl
promisenode
##restore
##escription
##product
##ogen
##ewh
rnd
rq
495
wxbasearrayptr
wxbasearrayptrvoid
2638h
1a3
instr1241
horizontal
##presentationlut
##352
asrfi4
ard
successfully
6cc
ygl
##1c8
##12c
ajstrtrim
436
instr1293
ensregistry
4041
575
##specified
adoc
426
scorchedcontext
aqr
g2
##006
##bca1bh
hid
##229
1260
1180h
127f10
instr1294
620h
solve
116h
plasma
slider
##abort
294h
instr1348
a0authorityepsg
instr1388
sigemptyset
nrow
##2138
acolumn
##ogus
##mentr
##hom
afilename
##indexout
##proto
greater
##11c
##stick
##e78
##wich
qheader
qheaderview
lxpanel
instr1259
gettranslatedstring
mainbuilder
getuntranslatedstring
40ac
instr1479
##6c30
instr1337
expanded
##osp
ofs
gigolo
##sprite
instr1364
##symbolizer
bindings
##rough
rcui
gettarget
mp3
##echo
newsize
optionsdisplay
2088
##total
1ech
uses
##quick
qmonq
serialization
##preferences
instr1317
##verser
jmin
##sex
##b68
msgs
tri
timezone
ap7
aaud
latoom
dcmscp
clienthook
##listbox
##dirname
4108
chisq
1830
##777
31a8h
##oforig
1758h
##quality
spir
instr1239
ainvalidd
bias
cpar
mvw
csrs
##4d0
423
instr1315
aparse
mate
##efine
stable
##ebc
553
##apack
buffers
sharetree
ajtableput
0ffffffc3h
##userdata
instr1363
4122
pdrawable
hashmap
aprocessingcont
2948h
sane
instr1390
0fffffff5h
aimport
ajstrtokenassign
ncbytescat
##audio
##iso
50c
zsig
327
instr1305
tilde
##wx
##econnection
##ee8
instr1283
dval
amercatorparame
363
##gain
updating
e38
##08x
atuperror
d18
##ecy
##owned
##rease
instr1247
##unichar
6dc
sv03
b3s
dc8
##otiation
##21h
##beijing
3ea
pem
4075
agu
##treference
##tequivalent
drtequivalent
drtequivalentcodesequence
1368h
adestroy
ptr1
##atenode
transit
xdmfinformation
afailedtocreate
ncol
adisable
drtpatient
open64
##genericdirctrl
##d98
##ublic
qitem
machine
##645
##ctype
2ff
b86
favorite
latoomut
functiondata
koodf
##sdefault
##resourc
4fe
instr1231
instr1320
8a0h
amodwsg
had
0fffffe
##toggle
gltexparameteri
assss
instructiondesc
##elnet
doubletreeview
##mirror
##iteblobwkbex
thiz
##24h
amail
##706
##7274
0c4
tmpstring
##ecimal
2090
82d
asrcserver
parentid
aheader
0db
instr1266
togglebutton
indata
instr1237
aheight
atrying
##stan
ajsqlcolumntouint
b8b8
readbyte
566
floc
cid4021
samp
##1560
ptab
##5f8
##ompress
1588h
19e8h
4055
mvwprintw
##528
planwork
immediate
far
afin
seqs
urn
qn
000000000011
##contextgroup
instr1309
atomlist
spectrum
##107
instr1251
showmodal
##removed
asending
ptr2
##erver
instr1285
0f6h
pythread
aclcomm
5fa
db8
##ormat
##pts
3authority
##iopharmaceutical
petradiopharmaceutical
ofvector
##effort
0000000000035
menuelem
##mpling
instr1246
smf
ajstrassignsubs
posit
2ea
##pheader
##uation
glbegin
61c
e50
discrete
autf8
5ab
##scop
990h
adatum
4042
apthread
ajtablestr
d80
##9c10
639
qgui
qguiapplication
sortable
strlst
s20
apop
66666666666666
1ee
bufs
16e8h
##mtyped
lead
instr1368
cds
##1e8
instr1361
df0
skin
icons
##584
##fat
0b9h
strkey
tintermtyped
##calendar
outstream
##994
instr1437
ann
##ixer
##romise
psrldq
##eti
ats
##62c
##lepcc
##remote
complex3
atmpfslibslepcc
66666666666667
##pv
provision
##ulse
lld
tensor
wxunichar
p8
instr1328
##6f8
members
b89
qtoolbutton
anext
##osion
86f
##qtt
403d20
##registration
223
acouldno
83a
anode
##urple
nonl
201h
geom2
##cmdline
vb
##loglevel
##111113
xwin
##337
adsr
instr1314
sorry
1340
##hav
maxs
instr1310
alatitudenorth
alatitudenortha
82f
40f3
instr1224
0fffffffffffffe
##getter
##listc
73d
##thresh
instr1252
##bb8
htmlbar
##encod
amedi
##bd8
deg
errormsg
1cf8h
##games
0000000000014
wiphy
ped
instr1291
ajstrtokenassignc
25ch
board
ncount
##b48
##uman
pyrefh
pyrefholder
0ef8h
##88888888
39c
4340
d20
orphanbuilder
66c
0b8
timeval
aajseq
67c
swig
##79c
0ab0h
adate
0e00
acantopen
amem
41b0
7f6
f68
##d58
lv
koborder
4230
##flash
valueto
instr1449
4053
instr1295
f6462
##txt
instr1360
wxcursor
kbd
instr1475
setobjectname
gtia
##d48
instr1308
0f68h
bifoptions
in2
4152
aspar
##98b
40e3
6bc
237
1e4h
369
ausrshar
eb0
4092
solver
zzuf
##2f8
03
asrt
730h
##quantities
##calculatedquantities
instr1287
instr1312
aconvert
8dh
##apse
instr1370
##f28
##ctr
7748
911
qexception
instr1350
2348
turtle
##may
sopclassuid
anypointer
45e2
400000h
currentpos
##da8
##offs
ipoptcalculatedquantities
purple
##ecache
ilen
3rd
pep
##anatomic
1270
acount
7c0h
getchild
nested
##elater
instr1326
xtwindow
charstr
sasl
ndx
##ades
##efc
6f4
markers
##overrid
##jac
slo
primes
##optional
intel
keyring
4194
1318
soc
aauthorityepsg7
##oidgrs
hang
dependent
aover
qgs
##self
instr1324
finfo
getx
##strip
##initialize
##commandevent
10110
fcmp
##76h
40bd
residual
3f1h
83d
1300
instr1226
1310
##ipp
##587
libusb
ayo
1b6h
marg
10eh
doubletreeviewbase
2668h
##cg
srt
56b
0df8h
mmap
183
ndim
prstream
1b48h
setpen
0f51
5ba
##ones
##edel
##kd
aak
kstandardguiitem
wxcommandevent
4029
##lements
##4269
stm
aclarke1866
f3
##634
##333333
##boundingbox
##attributessequence
msafile
##implemented
45e8
5f5
gss
##flate
pwc
##sslf
alibscommclsslf
0000000000015
instr1307
cid4031
week
unhandled
instr1316
1ae8h
fc0
dobind
aneed
6378388
4155
20a0
f10
vbr
gettop
##ather
##rop
isused
leng
formats
lcreatelist
transformp
instr1299
ctime
0cah
##d440
##attach
whole
2bch
doget
##apan
2fa
637813
4026
instr1344
41a0
##sited
##fatal
7ed
da0
##596
commonanatomic
commonanatomicregions
##cc7
instr1281
slash
##ulargrid
##dose
amy
##transaction
textdomain
keymap
valuetotrim
a001745329
a00174532925199
instr1261
##udp
aprojcsnad83nsr
##geog
getint
qsh
requests
774
instr1478
past
ypos
calligra
labeltext
1968
treeiter
##44x
instr1323
##kill
filefunc
##oral
##wk
##saf
4024
viewlist
sources
readfile
between
flocp
ashort
lokalize
ef8
##538
##refs
ijob
acode
invent
##259
4188
instr1322
solution
##meter
##linestring
gzip
42fd90
aparameters
aweb
##itests
40c8
##accessory
wall
6b4
448290
5aa
14f8
1278
##tedatabase
000000000040c
xgc
ip4
ec2
acannotallocate
fingerprint
nq
##656c
license
0d38h
infop
##acle
pump
filt
ainclud
isn
trx
1460
1c1
tqualifier
wra
acouldnotopen
odf
##error04
aberror04
aberror04itests
clen
instr1257
wwidget
ntsc
0f2h
631
readonly
##sired
##argn
##integr
##raphy
instr1359
d7
##375
instr1318
##196
##fla
##sched
inargs
projec
qweb
avirtualvoid
##come
4ab8h
reorder
##arger
tocmpi
##slash
##rojection
##197
##6d8
##ldap
aparameterlatit
veid
instr1327
imax
xtstrings
caddr
wxcheckbox
##libc
ensgv
boxsizer
1358h
##atrix
instr1271
##eel
##unningtest
dlink
navigator
calend
instr1313
pcpp
##404
b64
40e8
##mr
##elu
##6e8
symlink
4118
0fffffd
ehlsl
ehlsltokenclass
##fetchallby
sortstring
qcheckbox
glade
qmimetype
215
764
200s
databasecontext
##729
##32c
rlimits
outside
##ufreq
573
##datawriter
aio
##hw
0ff00
cable
instr1334
##iodrive
p8platform
##figfile
##blocking
##eng
instr1276
244h
##pane
sqvm
attemp
vanessa
d90
gap8
acf
8s
qdomnodelist
12f0
ssi
10c0h
adump
3bb
1250
geom1
7ad8h
rk
infb
##manage
##adv
0fffdh
##vide
inlen
000000000041c
12c8h
##irunningtest
dpi
a04irunningtest
##gro
olig
ival
##arsub
instr1332
isw
12a8
##211
apsg2000
5ed
b877
2188h
irc
aparent
##621
aurl
##econtent
resourcerequest
0d88h
##abuf
1370
##countered
##async
strp
xvc
##cq
calibr
ber
##traceback
##brachy
0000000000000
printing
##ving
##extend
##requested
treecolumn
instr1356
bots
aprojcsnad83201
subscribe
preedit
978698
migrate
wrefresh
571
scoring
openurl
##defaul
1550
0c3h
instr1341
instr1414
4f1
##erres
mdab
xrealloc
apage
##a8c
transformpromisenode
ajstrassignclear
fb2
2108h
spi
qabstractproxymodel
##buffers
string1
11e8
textfile
qmaste
536
apd
45ec
instr1282
##stable
instr1474
1718
f88
##defined
ajseqout
dcmother
zd
instr1335
##eps
webkdc
og
ossimdpt
flf
acdreply
4254
##41f0
25722
0e28h
ndab
include2
##apshot
inputhandler
utf16
jnlst
kplatosettings
appconfig
##very
##material
xtmanagechild
##wg
556
updates
##going
99h
pospoint
##228
select1ststd
aog
ec0
instr1319
##urs
akon
jt
ncbi
0e7h
gzread
##races
cfdgparser
##accep
0d48h
drtrecorded
1948
duplic
##oa
12d
matcher
##pic
4096
saver
0fffff8
##headers
##656d
ftpfs
kig
257
motion
xsh
subq
0000000000030
40e4
##9a8
00000000000c
##linux
installed
##ec8a
reduce
373
astexpression
kg
0d2h
##los
ensslice
de8
1230h
2bb8h
##eab
##756
b8b0
xmldoc
memb
b82f
ccdr
06
a024towgs84
categories
##pk
errorinternalstatetry
##vu
qq
instr1325
##ca60
aaa
wxmenubar
##trail
2020h
vsh
instr1333
##556
##qrstu
instr1339
pseud
instr1603
da8
clp
a122
internet
##tevent
##ifie
avol
e90
##power
acull
textension
##orlocator
40d8
instr1338
000000000047
##identifierorlocator
##resourceidentifierorlocator
##iversalresourceidentifierorlocator
1ea8h
a02d
ellipse
wxtextctrlnamestr
ensfeatur
dcmlongtext
zlib
ilog
instr1329
##getopt
361
2438h
##modification
##onal
pktin
ahome
kodialog
##9c8
layers
63781
instr1410
instr1477
2010
concept
qtsharedpointer
cec8a
633
dlist
3188h
instr1448
instr1432
800000
3autho
446360
760h
##trel
##ulated
tuning
##ban
b872
qref
assd
log10
adbusdbusobject
40000
657
45f2
pcppobject
521
3fe
sourcefile
asin
##oader
##esub
4066
##8001h
##aec
4037
##acl
##nough
truefalsetrue
dc0
ope
317
5ff
##e58
##sed
instr1311
instr1289
##users
textensionbehavior
tparse
instr1358
controls
6200
300ah
ajint
auid
specs
d50
##linear
precomp
403b
starttime
embinit
##6574
kf
##00000000000008h
dataptr
ff8
arg3
##components
d40ba
jso
f20
9ah
ensb
##131
stuff
authori
0000000000401
tmp19
instr1379
valueforkey
junk
1350
glwselector
tparseversions
instr1438
srfi
instr1560
##637
wcscmp
##ecal
instr1384
##512
wind
##treport
s3run
components
11c8
72be
aiso8859
approx
instream
##inth
1220
mainframe
##erved
unblock
mysql
dcmuniversalresourceidentifierorlocator
##resent
111h
d366e
axfburn
algo
2ef
11e0
759
a2d
d88
7530
beep
##635
##009
##listview
##eable
##esto
b878
yyn
characters
effortcostmap
instr1340
##childe
threading
instr1377
2bd8h
ee0
instr1351
ctrls
releas
##km
14d8
##pipe
externalrefcount
instr1366
5ef
##click
interrup
b838
##eans
##bolus
vh
f58
##yin
g1
##2233
eb8
decorativegeometry
756
e68
fd8
instr1440
b840
##3de
##utation
##pointdouble
vari
mainwidget
instr1355
##rp
##eassoc
dcmfloatingpointdouble
a25
sourcefilename
dcmsr
##references
##escr
##isn
0a3
##slots
3ef
3da
727
##edg
abackup
15s
createnon
2ce
##sdata
##indexinrange
fb8
##grammar
##anaged
gloss
##ely
sqt
4th
10e
seqhandle
lcp
1dch
suit
geodeticcrs
##obian
##adow
reschedule
##qq
yet
axmt
##styles
tss
lyr
##sigs
createnonowned
##strand
##lam
41d0
##loading
42fdd0
##96012192
432c30
aglobusxiodrive
readercapnp
375
aclear
qjsonarray
##323
##undo
uint8
hexpand
instr1367
##lecule
roots
aactive
ing
3ech
25f8h
occup
isindexinrange
##opqrstu
tmp20
a09996
createelement
446650
instr1372
removing
726
algorithmstrategy
algorithmstrategyobject
964
##icaltrial
adav
f90
3ae8h
aln
##ereferenc
##urer
instr1378
getdataset
21ch
ahp
quick
45df
2277
3ed
##miss
jsonobject
92h
univer
anames
aden
##d38
f8162
612
rema
gdb
wxstringtokenizer
cpode
##45b0
item2
##5d8
4200
##ird
hton
paste
4138
##falsen
hfp
##f18
2198
instr1558
##gno
scanning
adevic
186a0h
##998
##render
##ichier
40fb
0000000000020
instr1349
cie
29eh
##inout
hsbr
##tablequalifier
10f0h
coast
aerrornull
##boundedint
pname
107109
instr1444
chunks
##cleanup
avalues
770h
outputmemorystream
2228h
instr1343
##towgs8
626
hass
wk
##agraph
##704
instr1336
22ch
fdopen
a09996parameter
psn
1320
##erequi
logprint
136h
6152
##stre
asting
4093
thestring
##performed
ahigh
instr1394
2da8h
##3563
##90f0
17d
ajfloat
ed25519
441
##qry
defl
bitstream
defererence
pdevblk
1908h
40d3
tune
award
lastd
nto
aparametercentr
12a
qbuffer
ecc
d3a20
fwrendervtk
2260
0ffc
rh
apkcs11h
instr1362
nestinglimit
##andom
aprojcsnad83har
optionentryboundedint
119h
arct
d60
clamp
solid
travers
623
aprojtmerclat03
asecond
onelab
##funct
10ah
drtcon
##etitle
##ab4
instr1484
109h
lenf
2178h
amaximum
##iodriver
8x
libx
443
##conne
nalreader
##indicator
reconstruction
vic
wgs72
stderror
adown
##direct
fwdicom
##eb4
##paces
instr1468
##quit
inputfile
##axisnorthing
pythreadstate
000000
##acon
6ac
consolerule
##dt
tobool
instr1374
cre
postelement
##seed
qitemselection
instr1416
##cephy
253
instr1292
##pole
5500000000000008h
14b0
aroot
msgnum
##roid
##518
aany
apoint
afree
instr1418
b831
cgcs2000
4260
##joc
20b8
glossary
##avail
##pdb
sky
scanline
filestream
visibility
1688h
##ereadline
ajtextinstorereadline
0aeh
strequal
average
##trecord
##defghijklmnopqrstu
1698
680h
stringlist
d3c90
##fitxa
431
93h
avert
ei
##eakpointer
##poin
##242
##eamm
instr1460
wxmenubarbase
4f5
##drect
instr1398
##179
a200
##odo
ptf
##682
##tereader
0ffffffffff
compiled
ftype
insn
dial
nrows
wxitem
457
tcpip
0e4
##japi
0e9h
##lg
defin
freqs
45b
objc
drawing
1100h
##wgs72
43e0
##flat
tmap
##byid
xw
##song
qweakpointer
d6
##elimit
367
effects
asched
62b
86a
instr1442
amodwsgip
1480
##ddi
formatting
atl
1c40h
##559
instr1406
delims
f38
greeter
3df
instr1375
ibm
waddch
fade
##eau
##ingiterator
confoption
##cant
0ff00000000000000h
interm
ensbaseadaptor
htable
dsrxmldocument
960h
instr1376
fontdef
##oview
0fe
651
sqlitedatabase
itemmodel
20c49
apa
instr1594
interaction
##3f7c
##atable
terms
actionname
4b4h
aclos
1440h
0c000h
tolocal8bit
converter
placeholder
45ed
12d8
3d48h
conffile
##informat
aresult
decoding
4014
setenv
ef0
ana
asop
abind
4149
ed0
8f1
##interfac
instr1346
fontid
24000000000000
##charset
2328
atlsv1
lsetdouble
##readc
5db
solns
##6974
##structur
2190
cmdp
subdir
accum
##buttons
##oftware
##childelement
qsortfilterproxymodel
xclear
promiseresult
##upd
instr1421
abase
##52h
promiseresultupdate
instr1331
agraph
##2ps
##s0
##5e8
##aic
##ength
##ube
20d8
##filesystem
afalsenorthing0
404f
##assemb
##custom
explicitlyshareddatapointer
pwindow
ause
primit
2030h
##c4c0
2simtk
convertto
umask
qinv
##breed
40d2
##suffix
##holm
xis
piximage
araw
0a000h
instr1371
bzero
aca
##eastauthori
##saved
errx
endswith
unval
instr1365
0fe8h
instr1347
000000000001b
1388
todo
mbox
12dh
##localfile
##eman
instr1342
sourcemodel
##getconfig
##teddata
##traverser
atum
##odt
0d1
management
e98
asname
##stree
##embed
##scalefactor
efp
itemp
4198
zl
##enames
26ch
ecp
cbs
711
jmax
a2clicked
351
0f00h
567
131h
4095
range2
1slot
##asso
1c9
526
floatx80
guide
arange
0174532925199433auth
hep
10e0h
strobj
##257
ajseqdel
##lee
1390h
fb3a6
acreating
acomment
lual
0d28h
codepage
##markup
##removee
##idi
lcdf
12e0h
ucol
##compatible
5e9
a9001axiseastin
##transponder
classical
ossimgpt
##modes
peak
##emo
bitvec
cdebconf
161h
vc1
##caps
709h
delt
40dd
opendkim
uint64
##elin
##axisynorth
instr1373
##mouse
instr1415
0000000000407
instr1409
branchfalse
awith
uarg
##4050
1b08h
##anne
aprojcswgs72
##749
abody
2clicked
bridge
fwdicomiofilter
71b
##tray
56a
##888889h
##1415
xdmfreg
formatfunc
regular
##isequence
strlength
instr1321
1a1
e40
45ea
##enr
aabort
##pils
mailaddress
##have
instr1445
strobjtolog
jobid
f00
##vid
366
atoms
9786982138
##treenodecursor
dvbepg
narrow
##gradient
amodwsgipidd
instr1433
instr1382
##ky
##nul
aunabletocreate
amak
611
##2ff
tried
a1slot
##upported
##how
e10
tidx
##isempty
##virt
894
progressdialog
tau
2008
unsafe
##5e35
iguic
##ontainersrv
iguicontainersrv
iterate
asexitingwither
gib
##synchron
rden
f30
xsetforeground
iid
prio
aclass
kicon
train
iterators
targ
21e0
##x1
##attribu
0a1
2010h
logs
17e8h
##erequisite
oligo
dlsym
strtoull
##alic
##0000001h
rwlock
b835
instr1428
##bufsize
##die
mot
##espec
3538h
aschar
usbi
xsd
##684
##55555555
##acro
textview
29a8h
##vnc
40ab
20b0
s28
##ball
405c
##optr
##736
##eep
##147
aauthorityepsg4
##filec
labelwidgetclass
ahhcpn
whitespace
fd0
wlm
nelt
##reject
hlsltoken
151h
##anceled
804
xtget
xmldocument
shut
instr1345
fb376
86d
##stime
4410
##selec
stype
##replace
instr1408
##preter
0f1h
relay
glfont
##apping
552
a64
instr1422
ntop
362
##dvb
0000000000034
strequals
##etadata
lremovee
##procedurecodesequence
aclcommlib
lremoveelem
qthread
cvtdq2ps
ofconfigfile
45ef
##e0f0
remainder
adouble
asequenc
redirect
##parall
u8
##memor
v4l
e18
readline
##outfile
20a8
aptr
readable
40b8
0e3
1490
662
0ff0
##storedprint
0ffffffffffffffd8h
affine
instr1419
##oot
##hu
##clients
instr1353
##arday
0174532
1598
dgtable
5ee
cells
aresponse
instr1352
cpos
0ca
ageogcspulkovo1
##5fh
4079
12d0
instr1424
##yes
0ffff8001h
0000000000420
##igits
##ba5e35
ldm
anad83harn
##ighbor
chapter
gantt
##5477
431bde8
41c0
anthy
403c
##tables
000000000058
##opti
kplot
aserv
instr1357
ainternational
##andd
1448
##debcon
1538h
##tableowner
##connections
firstchildelement
atre
ipos
ossimp
7ec
##gcg
0ffff8000h
instr1386
##databaseadaptor
##email
##movms
##3f7cfh
##movmskb
##errorhandler
##720368
##2233720368
##utl
##exy
dvpsstoredprint
##minmax
iconsole
instr1423
6db
##742
aliases
##tain
arena
avariable
20c49ba5e35
20c49ba5e353f7cfh
##abb
errortype
instr1470
checkb
kpag
within
74c
4010
holds
aconnect
savethread
cptr
6378249
df8
349
##ethandler
741
##defghijklmnopqrstuvw
527
##resentation
decimal
##mmap
##drv
setwindowtitle
terminals
##eaut
##f5c28
##easurement
instr1598
##functions
tmp22
45dc
45eb
disconnectimpl
synchronizable
sesskey
instr1400
dds
xdisplay
a1n
##6570
anad27
afailedtol
0000000000038
vehic
instr1387
1478
b8b2
versal
adbdbas
instr1453
0edh
000000000001c
254h
ports
fromlong
485
2718h
desk
binfo
##odata
cosa
tsymboltablelevel
drtbeamlimiting
40d4
4069
apart
##textur
##fir
aperm
4a88h
inout
489
instr1450
2268h
errfinish
ajpeg
positional
achanges
dode
##strain
5th
##mailbox
1678h
docommand
##321
instr1391
roll
pokey
5c4
12bh
smooth
pn1
howmany
##external
parset
braces
provided
instr1369
mcpp
end1
kogen
2220
##1d8
##202020h
##hosts
netconfig
a0123456789
##ewhite
889
4143
mapp
dont
##slis
avalid
##strncpy
##343
404c
instr1404
8d0h
7e5
##signat
##commit
qabstractscrollarea
instr1572
##iphany
##bridge
ajtablefetchmod
ajfmtstr
instr1454
##prote
0b4
##numeric
aowgs84
pmovmskb
##77c
xi
funcname
gcry
##22337203685477
000000000040b
2288h
ageometry
##siter
xtdisplayofobject
6dd
##139
sqrtf
bencode
lag
1b9
##1authorit
f18
##5c8
e80
a00000
##idnull
pscreen
##forbidden
pfs
##302
aexit
ec8
b8a0
fiel
2exp
qmapiterator
pcid
##studymo
##ences
localisation
person
1b58h
aresource
663
aregister
never
methods
5ce
729
##itori
12b0
##163
##fors
389
735
0a2
43b0
doubledouble
##ptrre
degr
##rout
aframe
avim
f48
##159
dfc
##fichier
instr1490
acommonparseq
acommonparseqsu
3aa
240000000000000ah
t17
752
##where
testing
##0auth
agreenwich0auth
##05
tasklist
##initia
##require
##boar
##fit
##warningmsg
setfunctionextensions
strand
bitmask
##erature
0ffffffa
##glext
40b1
cold
takes
treenode
ogr
tixmlelement
ncpp
mqtt
trial
functor0
1618
tns
##stretch
ajdom
45e9
deletelater
3eb
acentralmerid
4128
acentralmeridia
0ffffffc4h
appear
##s4
403a
##dynamic
acg
##74c
000000000007
2dch
bang
197
anoded
codon
##53c
externalrefcountdata
pzlib
##xs
5fb
4164
1468
sketcherminimizerpointf
45e6
instr1395
1d78h
pybytes
0000000000003
har
##suff
2050h
890h
strbufappendbufplain
##indices
##568
##ecom
instr1385
6s
phot
lsh
attrname
##representation
00000000004028
handleerror
##alequ
xdmfregulargrid
7ef
memptr
##lent
akonadi
1578h
43d0
chartins
##226
instr1381
instr1403
irow
arep
##slice
adaptor
42c8
universe
0e7
103c
phrase
aloading
4137
##pn
fseeko64
f7
##mach
2022
instr1399
de0
ossimimagedata
1d9
asort
##byteother
dcmotherbyteother
dcmotherbyteotherword
ainternational1
asvector
menus
tpp
##ortab
instr1383
##sev
##setattr
mods
1011
ioerror
instr1401
e88
aendof
b879
8a28h
a100s
42a1
instr1441
4220
##sblk
##a512
##169
ee8
sgn
##virtual
corrupt
rosstack
timestep
b8b1
##vv
ado
xfont
##ikes
##events
smallvector
0ffffffffffffffa0h
2218
6284
##idle
sqlite3vdbeadd
##sett
alsa
00000000004026
b832
##x2
##opening
##orient
kparts
atrack
maind
b8a1
11f0
petscerror
10f
pfont
sinfo
setvariable
402c
aincorrect
dcmqueryretrieveindex
##grees
instr1405
adraw
##e7h
23ch
##immed
instr1467
instr1518
instr1427
##iomode
##boos
decryp
5bb
##beg
imf
##echange
vnm
86e
##v4
atestforbidden
ajacdgetint
errorinternaltry
errorinternaljump
ou
2710
eph
b836
##ff4
intfitxa
qstyleoption
3fb
heightmap
##effect
glvertex3fv
##igest
##trian
##arison
instr1472
setspecific
##unmap
1ad8h
sqlite3vdbeaddop
talloc
##igital
aitude
##rgbcolor
##rval
getattribute
0000000000419
bldr
h2rgbcolor
1328
15f0
instr1446
uds
##expl
strncpyz
##otype
symtab
upgrade
gettoken
##00000001h
##scaled
281
##pcm
1348
4144
##eclient
instr1458
4240
typestring
##5a8
16eh
instr1434
agam
tostr
5be
analyz
##b98
##75c
zoomscale
init2
00000000004014
getoption
##xrc
28ch
internallogger
794
40b2
justify
qgraphicssc
##accur
4123
elm
substitution
##15c
##archiv
cdd
##holder
##fiel
##messagehandler
40a4
##stdout
numberparser
deck
0ce88h
##6e69
dks
##contents
21b8h
ausrincludeboos
##elast
inbytesleft
##adat
mand
yk
packages
42e
a333
##fork
b837
##4444
##mar
b8b7
##beat
instr1397
getpwnam
##rv
##6f6
propose
f28
enscoordsystem
list1
float32
ewm
qhost
itembool
##eration
instr1420
instr1469
63d
##omag
dtoa
toklen
mim
##007
##etatype
instead
40c1
snr
frac
sdefault
##ian1980
##tracker
hangul
##atana
amark
instr1425
##ssize
##dispatch
##ecommon
tit
pay
dcmtl
##world
2fb
deny
ruser
instr1412
fout
begin2
fig
f0r
instr1430
ajstrremov
##b58
1470
4073
b873
##typename
##sthis
b8b4
##adjust
qstackedwidget
instr1413
itemmodelbase
##3d8
dogetxrc
dogetxrcid
584
00000000004025
##tar
##bdc
##quark
##stacksize
##3ds
796
nvar
setvariableextensions
instr1392
openvpn
provisioning
1308
##stemp
##aland
trie
##statistics
aerrorwhile
##3030
##endel
inputs
instr1402
2108
1960
##contin
ajsys
##nor
instr1569
##portal
##3e8
instr1389
##ajl
instr1529
##plat
1458h
rewrite
imageid
##clr
amatrix
##storages
setcheck
ofr
adinopluginsome
instr1435
pzip
ajacdgetseq
kd
e60
7d4
gobject
u16
instr1396
xmltext
hitori
instr1393
restorethread
##bca1af
##cstr
27a8h
##wild
51c
steps
areplace
pids
srender
autil
instr1455
##suite
##dummyvalue
rflags
12a0
adh
getimpl
2c78h
qf
1438
ffmpegdec
eventtype
##acy
dbe
nexus
refs
voidgobby
b83f
592
10001h
##den
instr1429
415c
nofail
6d4
prox
asis
guiqt
asock
##0000002ch
##butt
1a08h
##apath
httpheader
00000000002
frontend
4163
799
0000000000028
execution
##boold
1au
statesav
ossimdrect
awb
c7
##etop
##ultip
2008h
##558
instr1480
b876
asocket
flatten
442
59c
122ch
##unnel
659
1c18h
##omainwindow
##66667
a0unit
3c0ah
rosstackage
blur
alang
##oesnot
##openttd
coreattributes
##ecycles
000000000051
##9e1
rfblog
animation
##oooooooo
xtwindowofobject
guest
instr1443
7ee
##ansion
##classes
0adh
principal
ext2fs
afs
##stere
getdp
uim
##b18
##coeff
##beamsmodule
getstruct
nume
10ce
1508
blitter
paddw
##preview
karchive
884
patternlist
gaiaimport64
7s
gsi
tests
instr1568
koxmldocument
hhcpn
aib
33authority
winid
a33authorityeps
##uper
##datu
alibevtxrecord
##ea4
##started
mono
6a4
0000000000022
xdmfrect
##sclient
939
orders
qactiongroup
instr1464
##ipmap
##opinstanc
##25722210
f08
adbdbardf
instr1431
authors
fxch
4033
list2
kex
anodedummy
##allocation
##recognised
2538h
97h
f78
debuglevel
##sqlstatement
sqrtss
dsrs
fwthread
##531
infobackup
##ula
sqls
##scheme
##3c8
##leot
comma
##modality
##0parameter
336
preferred
sfx
aityepsg8901
aityepsg8901uni
1a28h
instr1517
noc
aband
##3d70
##ubase
bitvector
wxmenubase
adrop
strange
getfloat64
qrbuf
instr1411
dither
komainwindow
##ecur
##lengt
instr1515
5000
346
sketcherminimizerm
##menuinfo
deserial
aprojtmerclat04
##116117
treerow
##pressed
genre
lcpi
##sieve
be4
instr1447
e00
cle
b842
##020
##fv
##f4c0
japan
positions
##inputfile
rfbc
end2
instr1538
##ewriter
557
audeeastauthori
b8b5
##letter
017453292519
0auth
##ighaccur
anad83highaccur
blen
adbusmessag
tstate
1e1
149h
bib
##parametercent
icalcomponent
636
research
200000
221b50
##refin
##avg
zn
16ca
##252
##09999
disconnected
glwselectorentry
##bca1af286
##greenwich0
##edc
##555
asstring
rhost
sv07
000000000006
aold
##bca1af286bca1bh
aoperation
pushnumber
##598
##semin
##propag
ame
##ertificate
acannotcreate
apg
719
##treemodel
##structural
privile
unichar
89c
b841
linelen
27b8h
carte
calendarday
12e8
aorigin
inventory
40d1
f70
remap
8feh
13c8
fat
hstmt
1820
a19
##measurement
lseek64
0a9
591
001
led
##171
##357
##s1
geth
instr1473
xtapp
aindexproperty
logmessageverb
##hibious
##sigsafe
logmessageverbsigsafe
gsc
atmpfsopenttd
atmpfsopenttdop
##projec
##histogram
##548
pinentry
mj
aren
apower
1b1
sqlvalues
fc8
apacket
3000000010h
utf8char
sv06
destructor
drttreat
manop
publ
cp9map
f40
pglob
afil
outline
wakeup
##726f
2001
5da
xevent
instr1452
##mentrecord
instr1466
8c0h
##eref99
ensqc
itk
delayed
##dimensions
10dh
provide
##crc
amultip
##under
errorinternalstatefinal
##inct
1975
tmp23
b850
collation
afalseeasting
memq
0000000000021
##updated
corrupteddata
##eanup
vanu
5a1
ww
cmpltss
ajstrmatchs
73c
##contextmen
qstandarditemmodel
##acreate
avfs
2db
instr1488
##operat
elementcount
arg0
croak
##residue
instr1918
utime
##quested
##629
instr1407
eqstd
aspool
4191
fromhoriz
equalp
afromhoriz
qdockwidget
authenticate
i2d
hat
##ying
##orter
instr1436
writexmlstring
sqlite3config
4e78h
vtkobject
instr1605
aetrs89
alocation
##epth
qualified
40f2
##eeee
xf86drv
xf86drvmsg
##99c
suggest
##catalog
afb
instr1486
fea
tablename
000000000040d
4031
##ensus
712
15eh
instr1457
uiindex
##rgas
##creator
identifiers
22d
articleviewer
##hb
apag
instr1487
llist
atowgs840000000
41e8
1378
fort
getcharacter
operands
10s
##lemesh
schemal
33333333333334
clo
dcmpresentation
hor
2triggered
instr1426
344h
freebytes
afield
ban
desired
embpat
4034
0a6h
colours
associatedinstances
860h
pdbfile
452
b8b3
1928h
instr1536
indic
0dah
fwvtk
##776
reqgroup
##6107109
8d4
9eh
537
aproject
prefixes
##excl
outindex
##binding
000000000041b
averify
lossless
1558
gint
instr1451
rigidbody
suc
8000
ewmh
##xchg
15a8
dicomimage
704
instr1456
trk
amb
arraybuilder
instr1559
86bca1af286bca1bh
0ffffff8
##176
effective
2400000000000000h
##296
ether
acomex
yyssp
##50221
instr1500
dwork
aretr
strvalue
tlsind
flogsum
areadxfer
880h
##tenv
intrusiveptrre
##ffunctionsdefault
intrusiveptrreffunctionsdefault
45d9
16c0
xmlget
bvector
b833
1bah
fontname
##statusbar
##nl
##iosyst
##evice
addbutton
##trea
##iport
##1016
netaction
4414
##f2a
80000
1548
modal
1338
nodemodel
##activation
15c8h
amethod
769
tester
##1fh
outbytesleft
##rov
##transcript
33333333333333
afiles
2210
1448h
20c0
getvalu
##playlist
122h
lode
predicate
groupcompress
f60
##struc
ahttpwwww3org20
12f
##precision
b874
000000000053
##327
##multitex
ibuf
45f5
ahas
qbytearrayq
aunrecognized
##prime
##quare
pchannel
readt
224h
predecess
##ewith
zyn
##elocation
##addrinfo
agtypecheckvalu
csv
agv
597
a1284010008
qmimedata
bands
qlistwidgetitem
instr1513
b86f
fixup
phone
rebuild
1034
mdfn
##combo
##167
parents
aindicator
##encp
kwdb
anad83nsrs2007
instr1534
s370
crypt
742
fe0
pas
anof
stars
elog
##matchc
0000000000033
ord
16b8h
##download
##axislongit
aorthaxislongit
##reads
##bds
##interr
##gd2000
activities
0a00h
##falsenorth
##charstring
assist
##725
psk
0ffffffech
even
##unknow
deflate
zynq
getchar
14c0
aalign
instr1544
tell
realize
dropped
pfd
ainfot
embdb
instr1565
41f8
aug
5dd
##ofew
45e1
owgs84
##928
inlet
##ocentr
4168
000000000046
1588
aargument
b848
0fffffffffffffffbh
##btn
aremote
40a2
keysym
syslis
21a0
03d
extern
asourc
20c8
latitu
itemstring
##applicator
instr1593
226
wxbuttonnamestr
assembly
instr1666
tauler
ded
instr1580
tmp21
agr
##promisenode
strnew
156h
preds
aoutfile
755
athorityepsg890
bible
12e0
43e
0ebh
40e5
##arena
1014
tmp24
0ee8h
expire
instr1532
870h
astruct
i18nc
20e2
9bh
b845
##defghijklmnopqrstuvwxyz
hsp
bitfield
a199433
199433authority
a199433authorit
astvisitor
instr1492
##imeout
##757
376
##2sp
b8b9
25d8h
objectre
##estroy
##exten
amulti
secs
##tml
detect
detailed
47f
isin
modification
5eb
10fh
4099
##phi
##texp
##7100
uljj
structschema
xdmfrectilineargrid
vv
13f0
##zon
abt
##writelock
0c5h
42ff
samplerate
##explicit
csp
rfbclient
uncompressed
distrib
13e8
##indexouto
dcmpixel
##ragma
getandref
b8a2
##peer
##fname
##afx
352
##prj
980h
##atchar
lig
4035
references
instr1530
b847
45f1
itemlist
piv
ainstdata
41c8
checkpoint
##16c
strspn
##hr
45de
amodulespy
##2i
clientdata
9b0h
qdouble
supplied
f6
407f
paned
##usiv
mygenericdirctrl
0ff8
277
vanuatu
##5d20
exceeded
a2triggered
addb
##stringbuilder
##ligh
000000000000d
##compil
pn2
convertedwchar
reportgenerator
1358
##qp
0123456789abc
##5b8
aepsg8901unitde
##rome
slack
##apped
stmts
instr1570
nothing
41a8
acluster
logo
aprojcsnad27
##33authoritye
jabber
bedfile
kfileinfo
dsrdocumenttreenodecursor
ult
instr1563
##filters
fwpac
fwpacsio
wal
##pages
qrsh
1938
instr1463
40d7
##validate
2730h
##yyleng
##characterset
14a8
##665
##918
schemas
rmutex
0b3h
4043
9c0h
##omino
##near
xmltextwriter
##occ
sqlp
##illis
##tc
4067
instr1491
instr1533
2230
##d49
anit
##inserted
cfa
uu
nom
30f8h
storagedevice
##hbox
1db8h
mil
##buil
hlslgrammar
nort
afailedtog
f80
##151
aboutdialog
nwidgetbase
0fffff800h
larger
##ereset
instr1507
amphibious
##calculate
9d0h
jumpto
##pip
4056
##enger
astar
tintin
pes
9433authority
a9433authoritye
##getattr
cpspils
20d
inver
traversal
4132
##eference
aborted
cart
aic
##2392
instr1539
fwd
geteuid
trig
trimmed
phys
##rotocol
##sdl
1628h
##presentationcontext
##idirection
##109
##ddocument
returns
##aunch
instr1461
pso
instr1482
instr1498
sections
0000000000422
##culate
noswap
##00000000000h
coordgen
sized
strchomp
currently
113115
6466
1d88h
aorityepsg8901
aorityepsg8901u
bol
bdb
241350
axmppxepjingle
##9b8
aexpand
dcmcodec
##383
##gsl
acom
settop
220350
##istrar
cutoff
53d
instr1548
filtered
209dc6
206522
20ad1a
3db
##hell
12b8
bounce
adiost
##compar
##aacenc
##gi
abackground
##elock
glwpanel
mkdg
##mhz
0000000000039
embedd
adwat
12c8
rusage
##909
45a
##arraytype
statementbase
##578
b83b
directories
astarting
4049
##etach
0000000000023
longlong
##55c
decrement
aakregator
##controlpointsequence
b81
aeslmsa
0cfh
nmatch
34ch
##prin
2138
deact
211a8h
5f9
##unstructured
17a8
libregf
354h
ckd
576
delivery
2340
##6666666666667
95h
##locked
sap
deto
instr1462
##written
detoast
oboin
selec
##ibutton
alin
##bifoptions
##structor
65c
##single
aerrorparsing
lcreateelem
##econtain
##2222
##picker
sts
aret
4131
##61c
specification
pcb
4178
##alth
0cdh
instr1554
1170h
##mbr
##live
##ele
##mplex
bd2
264h
1878
wxlogger
l0
dcmqueryretrieveindexdatabase
afailedtoset
##701
instr1588
gram
unload
ajsv
gff4
##oolbar
##creen
3fd
##nin
aproblem
printw
##logfile
myutils
anotenough
414b
modul
voidsigc
organ
##widgets
36e8h
knownhash
hlsltokenstream
qstringkplato
4134
movlps
1540
imaptask
##family
instr1562
ow
481
positive
ipoptdata
x3
30s
##594
##throw
supports
aimp
tbit
instr1522
##1112
##posd
##arrays
fut
1b58
qprinter
##urec
acustom
##messages
ajstrtoint
68c
latest
pusherror
acannotread
encountered
sqlstate
217
arrayof
##948
steam
1650
atitude
z1
cpy
comparator
ensregistryget
##atty
##statqs
aclientsqstatqs
16caab
##variation
1b30
wxconvlibc
##161
presid
##ilar
paris
tokenize
instr1578
axp
innerfunction
cdrstream
instr1566
20e8
##templat
instr1585
627
##ches
4258h
14bd00
in1
19a8h
instr1476
b858
aunhandled
##gv
constdata
21c8
ensdatabaseadaptorsqlstatement
##hat
abessel
instr1514
instr1525
ref10
alibsev
athunarx
5af
name2
vanuatuwkt
circle
##ptc
instr1508
dlen
##conic
persist
6769
##stroysubtree
dodestroysubtree
##325
0f58h
instr1503
b8bb
spp
rfc
morph
##prev
00000000000b
##723
40a5
viol
##f74
##000000008h
metatype
##oal
45f4
##202
##177
assignment
treeitemm
xdmfgeometrytype
##imagemap
##numbe
summar
aexceptionf
40aa
##errormsg
alx
##545
##15e
1450
595
qdb
##fsc
##cop
instr1465
##12h
3388h
##canon
clist
##ad4
ajacdgetstring
1800c8h
instr1537
451
##passwd
206
atimeout
ajsqlcolumntostr
1b68h
ajstrremovewhite
fal
##roject
dark
dcmqueryretrieveindexdatabasehandle
divrem
qcs
asun
boundary
1998
##1263
executor
##filler
##stdstring
asymbol
##gar
##expect
generalmatrix
instrumentcomponent
4497
amaster
instr1481
##actual
aot
qprogressdialog
4057
##be4
tspecial
##13c
instr1489
bddnodes
##modws
overrid
asrcservermodws
paction
##2dq
instr1557
b8af
2238h
##65c
material
lxqt
409b
aauthor
fe8
rowid
iw
xgcvalues
652
alevel
instr1571
instr1496
ipaddr
dicomsr
ff0
btc
collapse
##eastaxis
clrk
xchange
alc
instr1499
indexproperty
1438h
1428
3048
instr1540
ushort
##751
40f4
typecode
instr1494
instr1542
##geeven
1edh
930h
astatement
finalargs
charstringinterp
instr1545
6267
0000000000406
40e2
maken
40d6
sketcherminimizerring
aoom
sting
clon
ori
##ni
visited
abadargument
instr1521
40b5
##e2ah
magn
4135
0000000000428
##percent
##itemdelegate
14fb00
1868
wxradi
sqfunc
sqfuncstate
mfp
t19
instr1459
treepath
rer
##edoc
1360
connid
##efrom
133000
45d8
##ools
000000000009
nwidgetcore
##opinstancereferenc
dsrsopinstancereferenc
##ouseevent
994
286
setcellvalue
alatitudeoforig
newcode
tspecialrequest
##13e
14fch
10bh
##glyph
functional
stacktracepop
qjsondocument
instr1599
krenamefile
instr1574
176b00
gaiafromspatial
13d080
udsentry
482
b844
00000000006b
ascan
angles
newcodeentry
xmltex
documentview
setdefaultshortcut
##atin1
instr1493
instr1528
getinout
14bh
697
trav
instr1504
14ca60
15f450
##goal
lodepng
instr1608
jikes
hasattribute
15af00
1640
1345b0
instr1495
instr1584
##sby
mds
146260
1441f0
000000000040e
156c30
handling
20f410
##ssession
160dc0
13a
124900
40a9
169c10
##14c0
cmpxchg
20d440
imin
146280
4077
c6
14f190
1978h
setname
4133
152b8b
a27
20e2e5
1f0410
11c2ff
10c9e1
10bcc7
11b98b
1500f4
20f81e
20e6e5
10ce52
fy
debugging
interpolation
functionloglevel
referenc
samba
##1bh
111c8h
globalconf
aeurop
antmessage
aacd
weights
40f9
##3fv
##sufficient
instr1505
##phase
ntm
0ceh
tmpfile
instr1510
##nes
instr1523
##796
instr1550
##ortr
setw
##647
println
##ever
logprintf
4124
stacktracepush
stacktraceparamlog
mixed
5f3
##ogra
##leotide
dimline
instr1471
1458
##332
45ee
##bro
instr1638
item1
##glish
alter
4097
hv
14c8
fa0
##mplet
##slation
coordinatesystemaxis
##imeddata
##configur
##migr
rfc8
roh
prerequisite
##rent
##uref
##485
tmpbuf
fset
0ffffff00h
instr1485
5ea
##hanced
##ifter
lcmaps
blankboost
conceptname
##6108
##enet
##dof
1a5
instr1506
langresource
##driver
players
##imeddataqt
1488
5ad
##sector
instr1610
##ocontext
kiconloader
setdata
##major
instr1502
instr1597
polyomino
funcs
1390
hea
2768h
##leftnode
flonum
##spheroid
aftp
instr1543
cartesian
huff
fake
##ework
b880
##261263
seqkey
amenuart
aform
instr1501
405b
exceptionobject
aselec
##urier
a39
invalidvalue
##atedata
moves
bnd
trailing
wxicon
atril
uimeddataqt
obuf
0ba
tophits
cancelled
##ivid
ensseqregion
addparam
##ocs
ucl
transparent
aui
poststream
##plane
##installation
##ensemb
2180
1b88h
46f
2a2h
10310
instr1531
ajreport
##ager
instr1527
##uce
newstrbuf
2120
##uset
2318
qsplitter
##life
##ypr
arn
3078h
abuild
407c
cgroup
##253
##x30
##launch
109111
superblock
fa8
updelt
12s
modifiers
gml
##changes
16c8h
b8a7
##pb
iob
##angular
##ptime
ape
instr1511
bcf2
##skak
pstrdup
alibsjapi
##japic
alibsjapijapic
achickenfile
uiutils
7577
tracker
dimsecondition
b8b6
outdata
acho
instr1546
transformpromisenodebase
etry
##concatenable
patientmodule
apatientmodule
asign
occupant
hptr
xsync
##referenc
instr1553
##mented
gemma
406c
firstchild
strcspn
xprintf
40e1
ajstrfmtupper
getheight
qundostack
groupname
advb
pcidevic
openid
ajstrcmp
dyy
13c0
##fee0
aoper
604
1110h
##eteam
gadmin
76c
4045
lyxskak
2178
aaccept
##9f8
xstmt
1638h
valuein
##setr
##primary
b846
##ifd
##743
##workpackage
##priority
1920
instr1524
##atory
putn
psong
b8a6
bz2
liby
instr1607
mpointer
##alter
2168h
000000000057
lnext
cb98
##kde
234h
dicolor
latit
basep
##latitud
##orig
qgraphics
##unstructuredgrid
5f7
getobject
atc
contig
##9e28
getstate
acck
ajstrgetcharfirst
##dbe
##251
qpainterpath
instr1577
##shadern
1a460h
##cou
wxconvlibcptr
eo
slope
editortab
drawlib
asuccess
glbindtexture
2004
ossimnitf
##datan
1818h
##bec
40cb
als
aerc
##tpath
aercentralmerid
##etemp
instr1614
vehicletype
dinfo
00000000004029
##prob
gaiaout
reduced
##eactions
pview
##stlat
atmpfstlat
##la135
descriptors
atmpfstlatla135
vpc
##errord
000000000012
ainfotooltip
valueptr
41b8
achickenprocess
xfconf
104c
geographiccrs
3000000008h
##sif
instr1483
##24c
lcd
sv05
botsay
##alling
17a
1970
b843
##loa
##compres
929
aadmin
40a7
##inputfield
getcwd
instr1512
expose
0eah
##582
##50f0
psf
imw
##02x02x
4174
gwenviewconfig
amis
##otap
##orthread
270fh
##6568
astreamnull
##parameterswidget
abstractaccountparameterswidget
##dfa
0fa0h
##energy
receiv
##nom
115h
dvpspresentationlut
##b7h
##vd
bignum
##etob
259h
adatumn
regexec
instr1551
configpath
43a7
1b68
0f48h
flib
git
rlen
settitle
sname
ltbp
instr1516
##serve
ainsertint
aspecify
human
shvh
##toz
archiv
shvhed
argv0
bison
bisonparser
40b3
instr1520
wst
72b
##managed
videomode
registersound
4300
instr1541
rfbscreen
##getidentifier
##obst
glyphs
separate
##1974
00000000004027
instr1664
##pw
21e
wxradiobox
##astic
9dh
4032
##samp
asrclib
instr1509
instr1535
##contentitem
f67b0
networktransfersyntax
addref
##958
##kto
40ad
##lobal
##oidgrs1980
amaint
tmp26
aopt
resignal
disposition
20d0
estim
dna
##247
##pub
##encryption
1af0
##leaf
dvpsreferenced
##17c
##blend
drtapplicator
ajson
##matches
15b8
afm
wxstaticboxnamestr
jpg
apdp
4210
6377
##f2h
fact
xdmfmap
scoringbands
importmailjob
getscen
audiothread
maindocument
##edlist
##treatmentrecord
##anon
##943
##ddasd
wlen
renam
##1double1
cup
nitems
##vbox
aswitch
##attrs
000000000041a
40a3
##ints
1878h
42b0
##ignore
##owidget
40e7
3be
inplace
##ques
##eddecl
epiphany
qdbusargument
##valuechanged
661
printr
##ullet
2200
currentitem
##irmware
stockholm
instr1547
atari800
hooks
##notifier
kick
##should
evalcontextvariable
15f8
xfill
initializer
600000
246
interfaces
urg
ulp
1b28
1f9
##escape
instr1555
4147
##toplevel
preserve
authent
aexpression
##xml2
acomexample
##steam
##157
befor
713
newt
##parameterlat
sockets
##wass
sing
jj
##omip
timeline
registershadern
registershadernomip
79b
1b10
aerrorhy
##buffersize
ajfeatget
setminimum
##byteorder
pointerbuilder
##304
000000000040a
670180
0ffffff9ch
##64294
##swith
##ewx30
741560
floattime
ausrincludewx30
apointer
##676
dts
xj
4059
b875
adim
##fdec
02u
b8ac
405d
getting
1578
simulate
afactor
874
##920h
1b30h
##vbi
740560
73d560
ticket
tinyenumt
675180
##guard
nseq
instr1561
292
2066
pptoken
eli
instr1573
retresult
673180
gdil
1e5
stpcpy
addmul
##month
##16e
arun
adid
##velop
##curve
atermin
4290
47eh
rfc822
clientname
8b0h
burn
printerr
57d
namelen
instr1677
instr1647
aexpecting
halign
##649
qdoublespinbox
##anchor
0a3h
1808h
anosuch
33double
bd3
tmp25
##449
##attributetype
123h
consumable
##reason
##dc3
8e0h
spirv
asorry
##99999999
featur
kconfigskeletonitem
dap
seq1
utilization
f6650
0a80h
assertfail
cachedresults
hlen
arx
resultat
strec
instr1622
awsw
##ratio
##you
instr1658
planrg
landmarks
4341
encodings
##iface
anno
o2
0bbh
instr1609
3fa
instr1602
##breloc
combreloc
72d
79c
mps
wxvalidator
quaterarr
pairs
0cdb8h
##996
##chop
##messenger
##9d8
maxy
##players
##cvt
##gest
##ac4
##artbeat
4153
ide
instr1620
##presentationaddress
oop
userobject
cmds
um
##anel
listidx
##etab
getdata
132h
webauthldap
xcalloc
1900
40f8h
##angles
ayatana
4df
insertion
4ae0h
##generate
instr1497
setfont
5a2
##ause
rfind
planar
##instrument
##ium
##652
errstring
mapped
##tendo
expired
reportgeneratorodt
##commonmodule
instr1519
ek
##libr
40fc
chrono
aaddress
##will
addgroup
##opyx
glgen
emptydefaultsequence
##1617
instr1582
targe
b839
nsize
setfocus
arctic
assocclass
##cstrdata
xbmc
afid
ajseqsetget
afilenames
aprojlcclat13
2800h
##algorithm
qitemselectionmodel
##flonum
00000000004d
41a1
planxml
instr1670
##ogcs
atoken
outbuffer
##viol
0000000000027
country
acct
2188
ont
##u0
4371
radiotap
prep
4171
##oload
000000000000c
adaemonsexecdex
promisegetconstraintasrval
##oldner
1440
##scap
instr1604
aextension
granted
##motion
aea
4018
##modul
##fromfile
##e38e38
arsub
##336
vx
transpose
warnings
instr1587
aabc
insertentry
asample
iaction
iactionsrv
freeaddr
0ffffffb5h
freeaddrinfo
wximage
12fh
240000000000000bh
logtrace
newick
endpos
4324
4342
##hps
69b
##destination
##home
valarray
0c52
##boxcontent
hy0
##637813729825
truncated
instr1526
4047
##mexception
vu
instr1623
##tw
##904
crc32
unparse
##roj
setns
1552
##language
30d8h
objectid
lef
##deps
17d8
##resp
##metre1aut
ajcharmatchc
instr1579
rpl
##mpath
instr1619
##notification
407a
##receive
mdvi
movlhps
aatrilview
instr1567
geodesic
##anvas
statsave
8ac
bsize
1498
glwidget
instr1586
##fort
1420
ajt
1b48
dhcp
##eremote
##fonts
errorinternalthrow
105c
treat
aby
40de
113h
ah264
schemaloader
##playout
asrccapnplayout
qmetatype
##occur
ply
##ama
##idisplay
1958
name1
axm
quotient
qmod
fwlog
playback
micro
reservation
preamble
setcontent
fitxa
either
##promise
atitlewindow
##hevc
instr1639
12c0
ajquery
4310
addcommandline
ati
addcommandlineoption
aft
ecps
astick
##worker
##otify
dsrsopinstancereferencelist
submul
instanceuid
##2dc
atrilview
5e1
pmem
instr1662
##888888
##ickness
dcmunsignedlong
b8ba
instr1556
4295
##codings
dpd
recorder
##flu
radiobutton
1408
getlong
##cmost
2448h
titlebar
hx
##oreg
instr1654
wn
gltexture
gzgets
geodata
ajstrtrimwhite
awork
loadd
bogus
##ires
instr1600
xmap
instr1595
##linering
##adh
##carg
instr1583
drtreference
glwwindowmanager
##primit
##mproperty
##hold
observer
strg
allocateimpl
abcdefghijklmnopqrstuvwxyz
intermediate
56e
407b
##quential
startpos
redisplay
ux
##multid
drtrequest
2938h
bk
tpl
strchug
dfd
advanc
interactive
##ura
outval
4s
instr1564
b8c0
instr1581
a0unitmetre1aut
shm
aremove
##spa
23d8h
contacts
instr1549
##ecap
##structuralpatch
1f9850
1520
xtype
hybrid
##constants
wrote
##arra
40bf
20e0
ibase
colr
at1
19f8h
##quota
##running
slid
##touch
multicast
242
softwareinstallation
sqr
1f8e00
varref
##metaobjects
relatedmetaobjects
aii
##mp3
jsc
s4
1410
lwhat
a0parametercent
drtstrain
jacobian
##zaz
t18
locks
gcn
42a0
recogn
applets
##certifi
##inde
7dc
##6174
##6e6f
##trows
2eb
uninitialized
14a
pcur
##f00h
21a250
getaddrinfo
##aa4
adesktop
##ages3
80c
##visib
##checkfailed
##dkim
stringset
alber
debit
##2210
##aprint
h264parser
ah264parsercpp
inher
1da8h
dcmunlimitedtext
000000000052
eapol
ultveh
1aa
##coding
sieveedit
resourcegrouprequest
qmonmirror
getnexttoken
taking
recalcmost
recalcmostleftnode
agnutl
resizable
##idata
28a
##bb4
##abcd
drtd
aboolean
6ea
17b
merged
0fffffc0
7bc
40b4
instr1630
18b8h
4354
##etypei
ams
instr1649
mbds
402b
instr1613
kxmlgui5
xmlgetprop
smsg
instr1592
dupprintf
xmlpp
nintendo
embbtree
cpufreq
4127
hitlist
xmtinputfield
a44
tolerance
arot
##xe
4157
##eastauthority
9786982138982
lerr
##datar
##ba4
mhz
##ce4
instr1691
emission
sax2
rint
##ubutton
axs
apkcs11p
1044
8859
instr1596
hot
bytereader
vself
a12840100081
0c521974
12e
##procmask
ajdebugtest
1368
instr1589
8e4
inset
214h
classname
##23c
##edesc
##ourceloc
##ing0unit
scoredialog
##stoprofile
ski
9a0h
##emax
##153
619
##ucl
17e8
7728
##canvas
##eandcheck
446
joint
abyte
hprintf
aadding
##22e
sv04
979
keyboardcheck
owned
##recordmodule
96c
ntype
44b
instr1606
instr1646
selectionmodel
rounding
yajl
##120h
##78798
ensmapper
cfdgerror
som
tvector
four
##aries
xtis
##yntax
adinoui
##gdic
setdparam
seq2
instr1635
12b
##ircle
combine
3198h
gaiafromgeos
getvalueandcheck
41e4
expense
cvs
##ocomp
getcharacterheight
53a
767
##issl
minutes
ireader
sover
ossimt
##shas
##eselection
queued
0a60h
##clog
##abe
cvnsi
1670
4151
##33c
achickenflonum
citadel
0ed8h
dcmsigned
asettings
409c
alibsyn
agtkam
21f8
b834
##execute
##allist
instr1611
21b8
multiply
##asswd
qmf
1968h
##ethe
##cular
##eauth
mainmenu
##1c4
psy
##gene
centra
spacer
kn
acouldnotcreate
aopendrim
406b
canadian
a51
frees
##sgc
kdeprivate
criterion
2118
xdmfcurv
pseudo
33double31
##143
3030
##veal
strange1
blast
aqstat
3b8de0
7610h
##ac9
basictype
locus
##175
ayeastauthority
##57c
cntr
59c4c0
##accession
tsourceloc
createdata
sina
1530
4159
instr1660
exclusive
confentry
##1290
packag
tmp28
##interl
198ch
14a0
##planation
aurn
##calc
tptr
##ocumen
##10210
autho
##5ah
b84f
fmod
pseq
4195
accepting
##seve
##fc0h
arraygetter
tst
conc
dvpsimage
dvpsimageboxcontent
##bufferreader
instr1576
##evalsequence
abytes
##cre
kopart
dvbepgentry
pstyle
##required
##isvalid
allocatenode
kwl
cckddasd
##ached
mpctx
##toany
instr1617
4179
achunk
4250
##1954
##intintintint
enssliceget
##nametowidget
1858
7022
datasource
##merge
spectral
##clipboard
infobuf
40b7
astack
instr1767
6bb
##655
1580
xdmfunstructuredgrid
registeredoption
##ecurrent
ptrace
##decode
biquad
btre
coreattribute
##obje
instr1640
asunabletoc
##comma
##imagemapeditor
7ffff
##73c
##endof
##ossible
129h
wxcstrdata
kimagemapeditor
##estination
##longitude
still
postg
9610
aput
itemset
18d8h
1b18
oddjob
14eh
infinity
sha512
getmax
##olecule
##newref
exited
4330
eventsink
##21c
##scores
##contig
fstream
b8ab
25b8
1b78
##ething
##withi
##wri
pfx
56d
##32d
0ff8h
##76c
adisabled
adaemonscommon
33ch
asrcl
aelement
bat
##51h
236
##297authority
##214
6e6f
##xmlgui
##assemblymapper
53f
2170
creator
setbrush
b8a4
b883
##valuefo
corrupted
avideox
instr1575
pend
2628
##653
actionreply
qtablewidgetitem
25a6634
##25a6634
asrc25a6634
asrc25a6634gnom
40cc
##6120
achickenflonumf
instr1590
anor
##zn
0a90h
##typet
##604
symme
4268
getresult
##66c
4139
##closed
1428h
##f84
longer
0e38h
rtti
populate
quadr
afast
454d
marked
inserttoany
inserttoanyfn
##29h
dsrcompo
instr1652
##consistent
xmltextreader
attributens
writebits
templat
stereo
asizetypei
localisationfichier
xflush
cbc
instr1627
4208
elimin
numb
creds
sanit
t20
45ca
447
0c521974fh
tio
assq
2c3
##andidates
hello
longi
1d5
b849
##filenam
xmppxep
##applicationsetup
aattribute
##poi
##asp
##eroot
vy
inmenu
##14e
##crypto
0000000000007
discretematrix
aposition
sketcherminimizermolecule
aserial
13d8
##subtreetre
afindsubtreetre
##e1h
##jack
kgantt
2128
413a
3ebh
##edto
apip
apress
redo
##324h
34d60
2110
##dst
##6f4
##cw
4173
0000000000024
aerrort
jmpbuf
##features
##ostart
##animation
aiter
1120h
7520
adeletefrom
functor1
0d10h
lda
tom
vp1
ajstrfind
##mellon
##pdis
1560
##dba
objectname
sigprocmask
##creating
be730
207
000000000049
cachedstatement
##edraw
newgrf
##instant
##parameterfal
setx
1930
instr1552
##xdmf
kstandardaction
0000000000044
20ae
ascreen
##ovalue
vio
polar
##tes
1828
axe
737
##fff
srealloc
amodify
##isnull
keywo
overl
broken
14e0
ars
ijs
108110
274h
insertitem
##38e
nelements
##hashdummyvalue
##59c
##ilation
adirectory
2005
52d
athread
##ka
authenticator
##96012192authority
fals
##ysdr
scar
spath
##yytext
objectrefdec
objectrefdecimpl
unred
##obs
##38a
sdefaultpath
##exml
newlen
7072
cue
instr1690
copyelement
progra
b888
##60f0
atsc
1214
ticks
interpret
apo
netbufferreader
##bac
scheduling
aunknownd
getmy
1910
counterpart
ensslic
##721
60c
42b4
respect
vcard
1898
##kip
acodec
its
trianglemesh
1550h
##invali
##e14
afra
instr1642
screenshot
atol
243
139h
dvpsoverlay
graphdata
##mpeg2
instrumentlist
applicationsettings
##queues
##escapec
instr13546
views
mm6
ossimimagehandler
prj
##ranges
1380
sv08
##flt
##atumn
##calcer
##74532925199
following
##ulatorthread
ispenvironment
instr1616
##seen
15a
notifyd
fromssize
0000000000009
instr1601
lng
##mature
fev
pidfile
##parameterfals
ablack
getfull
afailedt
aepsg6
instr1591
4267
mal
coastlinering
qfiledevice
b852
##oundio
addresses
15a0
species
instr1631
1c48h
amodules
keyvalue
1858h
acenter
instr1618
attribs
##itemp
cmovno
29ah
instr1645
acp9
40c4
1860
##1420
1b00
rigidbodynode
fval
##339
##wallet
##737
##itr
##cells
autom
psubq
isdir
dimono
keywords
pparent
kactioncategory
mediawiki
deliver
iflag
58c
listr
vicinity
aew
22a8h
##extra
frametime
##streamwrapper
qmv
acckddas
##xf
671
sysblk
instr1632
##gif
sfmt
##busim
setpos
initable
##ffffffffffff
##cout
setlayout
b24
##32vector
403e
nextchar
##obstacle
traced
##pline
outptr
getcode
##later
18a8
00000000000a
##indexc
284h
1648
##finder
3eeh
##18c0
optionname
libsoundio
##hug
writebuf
##731
291
toutput
12ah
instr1766
aastauthorityep
##31c
3double
spr
instr1625
1bb
ajstrparsec
##chrom
wildcard
##uffle
dbp
topsizer
aevis
destroyed
##kernel
bidirection
aserror
myr
wg
laddelem
instr1694
##666666666667
7ce8h
aword
shrink
wiki
##71h
41ac
##asis
37000
##cda0
scp
##edges
1b60
instr1643
##5e96
##hift
12eh
4350
13f8
2160
pile
agslist
##delement
4125
##referenceframe
itodo
##processing
aqt
40a8h
ajstrtokennextparsec
##wan
##caption
##ecursor
instr1615
append1
##my
11f
bulk
##gdi2
##sequenceinrtionbeamsmodule
openpgp
##2string
instr1650
##izz
561
resultbuf
43e3
292h
ahash
##iy
wktconstants
sonimg
1af8
##orthanc
transponder
ajb
3bzr
##ica
cmpeq
ctor
instr1644
pubsub
calls
##acdecoder
##playing
##stringto
4f2
shade
##listen
nlp
1398
##e5h
b884
instr1655
simp
aion
##abd
##2c4
lv2
aameterlatitude
really
99c
aattr
instr1624
##phot
statbuf
##mux
##multiple
19d0h
##ceal
ajstrex
delayl
##truncate
##floor
##classname
eflags
instr1651
##substr
##lags
chop
##textdomain
logdvb
formatted
##342
##ibility
projected
environ
##qryp
1398h
##oforigin0pa
audeoforigin0pa
##boardh
her
16fh
instr1739
instr1667
##foun
pvr
##xeastaxisy
httpheaders
instr1671
0c6h
ace
##solete
##586
linestring
##ymarsh
amodulespymarsh
303
bd1
inhibit
##unmanagechild
xtunmanagechild
demodulatorthread
##cch
##week
##kv
##exhelper
omniexhelper
##busimcontext
483
setrgb
3f5
acantread
filled
brandeddecl
pce
##p4
uris
afailedtoparsec
##227
xdmfcurvilineargrid
##19111
##include
maxx
xrmdatabase
##359
ambiguous
1618h
000000000040f
areset
0000000000029
factor1
qframe
171h
##741
##70fb
4462
196
##2d02d0
then
725
##005
70e44
primitive
8001h
qgraphicsscene
779
mipmap
addseparator
latex
readuint32
0000000000036
gerror
40c2
1b20
instr2080
43aa
aeoforigin0
aeoforigin0para
##helpers
70e44324h
4046
webb
##elcome
gmpf
idc
splice
3b9aca
awin
startvalue
##ochrome
##isurface
setshortcut
##ubyte
40ea
b851
405a
instr1758
##ssessionrecordmodule
##incl
##eregs
##multitexcoord
pnote
##tru
1590
namelist
svr
40dc
courier
##aes
pymarshal
##997
4175
40fa
42d8
xdmfattributetype
hj
##versed
##ps2dq
16f0
ajuint
##sld
0fb
cvttps2dq
##emor
45da38
##ighbo
1668
ossimm
afailedtoload
1416
##channelinfo
vbox1
chmod
40f5
crash
determin
3038
tmp27
envi
##sgs
##547
contained
agtkcancel
dsrstringvalue
temperature
##elisk
##alimage
1b08
ctdlgetconfig
359d3
integrator
4280
##props
##dby
1401
359d3e2ah
phydev
##sden
instr1636
##eri
instr1657
##presseve
abuttonpresseve
austr
scene2d
40ch
instr1612
factor2
405f
ajstrtok
athes
772
a667
##64vector
6ff
soff
allocating
b87f
instr1665
2150
##efa
##62d
2628h
asmall
nocontext
instr1672
4248
21d0
design
10210
xtgetvalues
pda
ainstance
lasso
instr1634
13a0
##661
afram
sphere
##teditor
ahauthorityepsg
aauthorityepsg2
instr1626
##ddc
popen
##ports
aremoving
1016
2730
##assembler
21c0
peel
0ffffffff7
fileitem
4ee
q1
xfreepixmap
favorites
199h
instr1769
wavepanel
2cch
##anagedelement
filereader
astatementwass
b87a
wit
22b
alibsgdisgegdic
7ac
fieldwidth
ajstrdelstatic
##subtre
409a
40f7
ctp
##failedto
613
1848h
##sistency
5d1
atemporary
##ocentric
##lopyx
##vbuf
215e96
asrcliblopyx
b8ae
shortunsigned
rat
addtext
instr1628
##6572
22e8h
amake
codedentry
matter
##7181
dcmstorages
isatty
outgoing
csi
savel
mstr
0d7h
##newin
instr1682
1800h
##ocations
qtcontainer
76d
setwidget
mess
##662
getparam
instr1676
equipment
##sitereference
avoidkplat
bindtextdomain
arequested
gaiafromspatialiteblobwkbex
##roles
##uric
14ah
verb
rvr
0000000000025
notif
5d2
##them
##osen
aerrorwriting
##maybe
thumb
mm7
getreal
40d5
collapsed
uilist
21a
##pointtogeomcoll
gratio
gaiaaddpointtogeomcoll
##modulator
b84c
instr1703
4076
ajtablefetchs
##obilizer
tap
##usp
glmultitexcoord
0fffffff3h
42b1
1b98
##car
15d8
asid
##fromr
adbusmessageite
framelist
##bottom
##instancesequence
offline
4263
pdst
instr1732
ajstrtokendel
739
instr1757
instr1653
pengine
pacs
achecking
##observer
trn
pton
##estim
apattern
b83c
##towg
16a0
111113
nucleotide
xmtnametowidget
flatfile
1528128
athisis
0aa
reads
aimages
117h
instr1722
enstranscript
webblk
batt
2818h
772c
give
##mk
##11e
submatrix
##tens
alse
18c8
alignptr
amessagecontain
lent
##species
221b80
northi
abstime
1988
##xxxxx
arunning
threadblocking
threadblockingqueue
instr1621
41f4
msgv
readbuf
220380
aunknownerror
uprefix
configurewithi
dsrcompositereference
configurewithihm
dsrcompositereferencevalue
5df
41c5
hhct
ahhct
getvm
##sequenceinrtionbeamssessionrecordmodule
transvers
fillrect
241380
b8a3
instr1673
50c0
vdb
bufferevent
##693
endof
209e28
20657c
20ad7c
4166
##raster
aservice
putenv
##ji
944
##673
##counts
ausrincludegsl
ausrincludegslg
##aring
##0001h
vaapisurface
instr1697
instr1648
1778
1f8e10
instr1661
##ags
qdbuspending
##seqc
##existing
5de
purge
instr1743
contrast
0000000000019
wakeups
reaper
43a3
1f5
axmlns
tidy
datalen
recursion
ablue
##vertical
strecpy
uval
alibssgeobjsgej
00000000005c
wktnode
##anbe
0e5
##tvheadend
srate
21b0
##forml
aphy
4370
##urst
hhcc
##packag
bitrate
6378206
inits
csr
##4cc
dstw
4d4dh
bfd
rmdir
deactivate
##ssd
instr1698
##ypl
playerid
##hl
genome
##newton
dbc
handled
0174532925199433au
wsp
fdkaacenc
0123456789abcdef
##ictionary
b855
7e4
##allevel
loki
instr1720
acouldntallocat
averbose
hyper
sliced
boomag
instr1637
##slo
xi18
20f0
instr1755
instr1777
acdlog
blueish
##estates
pgm
nic
instr1924
##ce70
##thr
configured
1ae8
bcf8
instr1641
##radius
activityseries
aggregate
glnormal
77c
##atext
##ufact
49a
instr1786
instr1712
##ignor
##stransport
aauthmellon
a2f
brief
ladspafx
freestrbuf
inflate
##669
3f5h
##e39h
omnipythread
##most
objptr
15d
hav
abif
adconf
414f
icmpv6
iterations
21a260
##71c
ldata
##2064294
gengetopt
21e8
linemap
4156
setuid
0ffffffff7fffffffh
cmovo
##1200
amainwindow
##ja
dcmfg
70c
4199
a000000
instr1795
##doesnot
1130h
##appconfig
mech
##ceiver
terminated
##reach
21f0
clearerr
instr1740
9786982138982authority
radix
621
##wrong
safestrncpy
##base64
13b0
nlink
1870
instr1629
##opens
athere
asfd
instr1717
##ulcorner
thrift
##eanterres
aeuropeanterres
valign
pfontbase
cdoc
instr1700
##32e
8284
0a70h
acckddasdc
writerwrite
##tf
charp
cpodes
##mplementation
instr1696
instr1806
##ecoord
0174532925199
sensex
modifycompletion
9f0h
##stos
hypot
##filedialog
2df
304h
1768
placement
degrees
414h
0cfe8h
atri
##erect
##fullscreen
inifile
##modelcomponent
qabstractconcatenable
abstractmultid
##imensionalimage
##modelcomponentunits
abstractmultidimensionalimage
abstractmultidimensionalimagemodelcomponentunits
operationparameter
instr1823
usfm
seqset
3b9aca00h
ampl
##itute
13b8
instr1659
phast
intersection
sopcommonmodule
##6720
444h
0f423
##d84
wxstock
astatich
adbu
1f5h
##dbl
beh
apyevtx
##9122axi
aityepsg9122axi
instr1800
instr1794
instr1731
instr1669
##adc
##ad69
instr1675
instr1775
41f1
aod
333333333
fxstat
##unex
##35c
000000000003b
fpos
sketcherminimizerresidue
directive
295
4400
2700
8cc
getvalid
instr1756
40eb
theulcorner
914
qfuture
ahhcc
omnipythreadcache
##rex
instr1668
resultclass
qstringqlatin1
##qm
mullow
b87b
414c
acannotget
1738
dcmr
avr
1150h
mpq
##ad2
oneof
16b
##2cor
asfailedto
gldraw
destsize
##s7
40af
ghost
idata
clidx
6aa
##37c
##dv
writestring
##getres
a99
##enon
cflags
##257222101a
setfrom
##243
agslistener
avk
4464
##32a
4490
##igname
transmit
valuestatus
instr1729
archiver
valuetype
##26c
##smx
kmainwindow
vcb
nlmsg
aag
instr1818
instr1686
##closing
##forc
##00008h
around
##formats
##ems
##h265
areg
492
instr1692
kodocumentinfo
soapysdr
3050
##omanager
configfileentry
getinput
latency
2130
ag8901unitde
0d5h
017453
authorityepsg62
ag8901unitdegre
lum
##64000
3ba
95c
##iples
fwmeddat
meth
##75f
##qc
##ff00h
4319
##7dh
indx
onepole
getscenes
##esta
axd
qstart
avc1
##derivation
##mapc
anetwm
920h
lc0
pty
##unov
orientable
##105
proper
seqall
##netdev
death
titles
pie
multiplex
acos
instr1844
instr1679
1990
44d8
qxmlstreamwriter
mir
lfreewhat
setmaximum
adn
17d0
##scol
##ameters
bts
41a9
wtapplet
##immediate
setitemstring
##lick
##success
hfs
table1
instr1760
abits
yv
yychar
atrildocument
logtraceflags
pclose
##2e2
explosion
73b
##dqu
##packe
##lipse
cpdls
pkg
anow
##n3
##inat
##estar
##trole
##secure
airport
##emen
instr1761
cspec
##entype
3ffffffffffffff
##uk
akxmlgui
cid7181
athunarsbr
0ffc00000h
fwmeddatatools
1on
##inicaltrial
instr1734
themem
setoption
0000000000006
##ewin
a37
mpeg4
getlast
itemenum
##poll
fixp
##codedattribute
instr1684
1fa8h
##27c
getby
cwdaemon
##12a
avisible
##38c
1750
##ocommand
dhdn
aincludel
##frag
bookmarkentry
emboss
journal
coreattributeslist
14b
seekg
sieveeditorm
creater
40b9
wxthread
1720
xcreatepixmap
alinear
717
deferred
cmdex
waitfor
physical
indexingiterator
ahoriz
greenw
hsc
3040
41b2
omit
1200h
##encpicture
alive
##ul64000
##agelayout
0a7h
##ul64000ul
spellchecker
406a
representation
instr1768
##opcode
awher
gap10
b8bc
##efin
##ampler
##plx
instr1714
##snapshot
##nost
2168
##s3
fileparser
uiptr
grey
776
tmp30
##249249
gopchop
aafter
sety
acquisition
1e6
instr1725
##386
45a7
2b9
##texec
aclarke1880
7b4
advancetoken
mwidget
instr1707
##alspread
3f4h
ampdcron
##byteoffset
xmlparser
a333lat0
abas
knowntype
setsizer
4550
##prefs
vc1parser
avc1parsercpp
891
##351
fch
zexy
instr1633
66b
##d4c0
##aque
continuation
##55555555555555
##apunov
forc
viewer
a1on
apleas
torrent
9e0h
b857
singleshot
##eshifter
uimeasurement
##ung
errorlog
4597
instr1693
1054
registration
##ddataset
695
displacement
##loss
instr1763
##fbserver
aatrildocument
##bbcd
apropose
aorder
later
40e6
41d8
akxmlgui5
##ecd
instr1778
##hses
##96d
instr1781
aupowerlinux
lost
##m2
nbuf
instr1741
nseqs
b8c1
instr1656
setupui
##lenc
msequence
43a0
jam
121h
##6567
##inmenu
300000
nameptr
logistic
txtdelim
instr1681
acouldnotfind
glcolor4f
##argins
14f0
2318h
bcf1
das
imageseries
instr1680
translated
o1
instr1718
##623
instr1687
xhtml
##odies
instr1764
kogenstyle
##odbc
##unable
bases
xcleararea
43c2
atoofew
##sat
##1841
nomem
9c40
sibling
14d0
0fffffffffffffff4h
ipr
blacklist
parttype
aschemestring
b860
4036
##newtonrefin
xmlstring
instr1753
pict
##ithmetic
eclass
abook
684
dvpsi
instr1726
websocket
xdmffunction
42c0
processed
##79h
eventqueue
4648
##e38e39h
##942
1788
4162
axfce4
attempting
yc
##rtplan
fps
keylen
instr1678
0a50h
instr1748
##askfor
p2p
##6100
lse
24a0
longname
arandom
0a30h
instr1663
##ijing1954
##glib
##allo
1b88
##19406378
1bf0
bcanbe
ajstrcmpc
bcanbeempty
yyin
2c1
pragma
##306
instr1848
3378h
xmlbuffer
alibevtxrecordv
b8ad
0f10h
qwt
40ba
newnode
arate
excluded
692
instr1713
##username
##headerdata
41d5
updater
addname
skipped
1c5
##alianpur
432a
analyzestack
241h
animated
instr1898
paramname
date2
1850
##outpu
jul
retvals
##shield
defn
sni
##aver
4c9
0c60h
##delta
correction
awhile
lcb
993h
106c
2100
epg
2708
regcomp
avaapi
##elibrary
abuf
##fetchby
srand
instant
##pout
partof
awhite
##keyfile
##counted
1f1
##commod
qtoolbar
instr1711
##80211
mulmod2
instr1674
0ffffffff888888
0ffffffff88888889h
##ortable
40db
##ired
instr1876
maint
tickets
eit
##pth
enr
000000000060
aerroropening
fxt
79d8
traverse
dealias
assem
##282
keytab
gvars
pointerpool
aglobuslxiot
j1
16f8
4af0
temporal
##deviceinfo
soundlibrary
##palette
##setrs89
lxchg
pagesize
##needed
834h
##overflow
b83e
##ityrule
1ea8
4129
else
mpn
loglevelmsg
be4c0
##boardhistory
aunicast
rschema
##existswith
##bbcdch
1a78h
##efirst
##a84
aauthorityepsg8
##ckpt
##spheroidgrs
169h
##ader
##viddec
aerrorcreating
pushback
##datafile
parc
##28c
arth
crline
##64c
2238
auserdata
155299
##x3
##f6c
instr1695
41b3
wtable
1738h
aabout
##spe
##transverse
##emain
##joy
##answer
dcmfind
b83d
dcmsrlogger
##949
istr
40ff
ofdatetime
273
wxstockgdi
aher
22ef
qmonsubmit
bufptr2
adinouicon
##ench
contextmanager
000000000042c
1748h
##best
1b80
historyelement
calculation
qset
##ublictype
tpublictype
gmtime
instr1762
276
##tail
intkeyboardhistory
4238
ahsc
instr1689
ajfeattag
16b8
##f1f
scheduled
13e0
vaapiencpicture
asel
2cb0
qryd
##colo
fasta
runtimeexception
instr1742
addrlen
0afh
invmod
##orde
1510
aobjecttre
##lon0
htsp
##estorage
##aneous
nframes
0b40h
##fun
xtvacreate
##ortop
cups
##sdir
aterm
2370
dsrcontextgroup
##ogeos
stretch
##6cc
grammar
news
##prest
7274
b8bd
dinou
08llx
qtyped
qtypedarraydata
rend
21e8h
mpdecimal
instr1945
1b9h
wor
variantbase
acast
4278
##62c1
cpt
8f1bbcdch
idxs
##verification
##intersect
instr1702
sdt
##wv
instr1709
ashap
definitions
getnumberof
##dds
sint
##2s
instr1683
##ceeded
instr1749
island
negot
1b38
wxend
wxendbusycursor
obtain
instr1792
expander
##obackup
xqr
xfillrectangle
##olid
gethash
4141
t3window
xmlfile
##utes
dicomcodedattribute
b8a8
instr1779
##692
xfix
##mix
strt
utt
writablelocation
instr1699
##mlogger
##sha
agre
ulptr
##gnomea
xine
##oman
aobjecttreetest
instr1688
instr1746
##iqdata
bd28
##verbose
aattempt
##beta
granule
aitudeoforigin0
prefetch
##pairs
000000000013
acache
gaiatogeos
credits
555555555555555
##quar
##phere
fillp
##scans
##eaccess
alld
405e
##dictionary
expansion
gety
135h
47b
44d
40bb
logout
##egister
quer
261h
setlast
##402
##actr
ackr
glpanel
outof
auc
p4
apulkovo194
abessel1841
newpos
decoration
11ah
voic
40b6
checkerror
413f
chromaprint
hal
crop
objectcalcer
##ypath
##489
basecrs
83333333333334
40ed
##63c
evalcontextvariableput
instr1721
41a3
66e
dialect
asetup
trees
33333
##7080
ip6
4338
instr1685
gaiaallocgeomcollxyz
aoverrid
14f0h
1b40
##getdatabaseadaptor
instr1706
2d4h
pkcs7
nul
4321
4460
##specify
instr1708
aallow
b1c
paper
##25c
##olv
##jp
413b
asimtk
negate
adefaultvalue
seekpos
afocus
##ntp
hasht
2fe
4b9
aglobuslxiomode
src2w
##eranc
##392
pstate
shap
##356
treectrl
##mh
aplugin
409f
reveal
##levent
checks
##541
clientnum
##ddef
##b04
ossimimages
##67c
22f
##offsets
##fon
arm
406f
implement
xkbatom
##getl
##dbf
feattab
##traw
abeijing1954
instr1704
##activec
##cyk
dmax
##trow
displayname
##pids
##17e
dcmpresentationstate
lastdir
##operations
lcopylist
##sdep
ensfeatureget
4273
424h
##da4
adbsync
logprintb
snipp
instr1789
tcsetattr
configurationelementcontainer
##audi
arecord
1748
##6170
##argum
##pdisposer
incompatible
instr1772
acannotcreat
drumkitcomponent
4988h
asaving
##62c1d6h
atofiteratortop
##outp
##pping
1608
setcheckable
46d
75c
inframe
1608h
2fd
41ff
deep
instr1843
26e8h
aflags
agra
biker
permutation
##commodityrule
instr1884
##bedd
userprj
lxchglist
##irl
atypes
b87e
2500
##fou
##float1
another
##tracks
joystick
ajd
commoditiescommodityrule
edg
##scre
56f
instr1723
lor
instr1744
##hmm
pointlist
18f0
prot
instr1759
bufferdata
1ffffffh
city
##mag
aoptionsc
dmin
19a
##int64
ajgraphxy
42e0
tfunction
instr1782
##wich0
gethostbyname
instr1798
instr1944
instr1724
##63a
##ugene
heartbeat
nothrow
telnet
their
xcreategc
en50221
dbig
3568
##304050
apresentation
rbuf
##alive
1f4c
dvpshelper
foc
##bon
7d00h
moveto
##6dh
##74c0
3158h
6c4
417b
##rimp
22s
##links
40bcd0
##idsequence
18f8h
0fffffff1h
2208
axx
##225
sqlite3expr
free0
hmap
pt1
instr1705
##izzle
pnode
40a6
adatabase
1430
ainlined
##tocon
problems
100000000
physic
0ca62c1d6h
instr1716
table2
afill
##connectio
##idu
aidian
##iag
idian
xk
resul
paacdecoder
scriptlist
6378388297authority
93c
##tmpp
##textures
##edatabas
egl
40d9
agtkis
7cc
##686
instr1804
##mmode
ajseqgetnames
instr1752
##coming
0000000000424
multib
u0
instr1737
##scene
authorization
tpos
uchar
atexture
backtrace
indexoutofbounds
indexoutofboundsexception
##icult
modrm
h5t
285
2720
5f2
pot
vw
instr1727
5500
invariant
parsetuple
qtextformat
##rq
doublestd
##aska
instr1801
6c10
172h
kxi18nc
41fa
htmlview
uint32toa
kxi18ndc
3ee
94c
##ffa
##ofth
##troi
recovery
3efh
qxmlstreamreader
instr1888
##ff3
103105
4016
13d
instr1733
instr1791
##messagebuilder
ucs4
a0123456789abcd
a21
adel
ssh1
asfdlu
ssize
wher
qdbusobjectpath
4088h
aexceptionfmpz
##bot
##implementationclassuid
movement
##industry
tempstruct
difference
2ec0
41b1
17fh
providers
astandardparall
ey
0000000000040
quatervec
instr1831
##chemas
getlog
instr1828
0000000000429
managers
b87c
##parameterssequence
dual
ish
4a1
realm
sysfs
3020
##h2core
instr1747
mtrace
##fromitem
1600
instr1770
##353
canceled
18c8h
ion
aepsg9001axisea
efi
instr1750
##valuetyp
ascannot
afc
areadfile
##mzone
##7120
itemint
##vali
5dch
exfat
libxml2
##ecallback
##decor
##602
facility
every
rho
strs
40ce
96989910
##expe
##upower
4213
3c18h
taskworkpackage
abookmark
coff
findandgetsequence
1638
aaff
1400h
0d6h
aalready
slang
scrip
##c04
##setstring
40f6
##propert
##659
##cev300d
instr1787
caching
mandatory
alibsyncephy
##blas
instr1829
##namespace
##quiet
getcol
getposition
##tenter
##ighted
##isa
compoundvector
aegg
5fe
##ec2
##ifn
##blueish
amenuartblueish
a31
4167
atitlecolumn
##transition
16e
##eventhandler
1838
##arty
drtcons
xmlstr
instr1915
##fb4
21f
merid
##mismatch
17c8
1b70
alibsspool
##vote
b82e
000000000068
##scrip
apadding
##follow
125h
configur
##alspreading
##lots
191h
idv
##22c
amac
##oyo
deleting
##slow
4468
2408h
anything
##7777
rbl
17e0
##versio
sclist
2360
instr1882
8587
aatum
achild
aspecial
instr1710
e7
##335
##792
calcm
tif
3068
instr1904
networkaddress
4126
afailedtoget
rsn
1140h
prgm
##sequen
1a68h
dcmpath
xcopy
b820
42a8
##tregister
501
glocal
4270
bund
sparse
aqlite
instr1803
antmessenger
isi
pbi
acharacter
afw
afreetuxtv
##fault
##year
494h
##clientstate
trc
##6107
instr1784
##5b70
drtreferencedrtplan
instr1738
instr1783
kounit
ensdatabaseadaptorget
cif
##apr
increase
arole
1811
##ocheck
embedded
qscopedpointer
0f423fh
basetype
##2fh
ftoa
instr1957
sendserver
2830
homedir
##music
##mplete
453
accession
smtp
##osub
##horizontal
017453292
##isno
instr1774
40cd30
b890
dcmqueryretrievedatabas
dcmqueryretrievedatabasestatus
1918
hsccmd
setis
acmdp
##scalefact
##1ul
##edown
eventhandler
5fd
766
##ramb
19d0
##artic
42db
testerexception
8a4
4343
17e
programname
7eb
40bd30
qend
##2bh
##filesyste
##40f0
##6140
collectioniterator
landmark
##tins
40df
languages
aabcdefghijklmn
bud
1668h
psprintf
##lod
currentbyteoffset
xz
paragraph
instr1773
arginfo
outputs
dwarfstring
##ffort
exechost
landscap
nsub
alo
44b8
nullok
##bfc
##vps
4142
##arent
singleoperation
##endo
##mirr
##1020304050
403h
x64
##transit
vp2
dcmattribut
curwin
##1authorityep
dcmattributetag
usert
126h
b811
42ac
##6b4
##era
##httpt
152h
##times
faces
psequence
instr1822
mainloop
devnum
asinvalidfile
xdmfattributecenter
##ovalid
nchannels
43db
sdlnet
##initi
looking
##clo
##donot
000000000059
dupstr
floating
6ef
##c18
##puts
##753
getentry
accessorynode
compressionctrl
axy
b854
41c4
1680
instr1836
18a
41ab
nodeid
7a88h
##configure
2a9
##aligned
##sen
unmount
##ffc
##ypart
##22d
15f
asrcr
1ffffff
gvalue
gitude
ajliststrpushappend
amanifest
rvp
explanation
fwdataio
protein
sendservercommand
##lify
4259
agitudeeast
utilityobject
agitudeeastauth
hsb
##ifica
instr1701
iwd
##abouttob
atend
turn
0be2h
instr1785
##erminated
gmsh
429a
summarizer
4218
erf
##jg
editmode
perf
##overridec
instr1799
##typetag
##sdraw
maxlength
dvpsprint
22a
6377397
ansi
kformat
41540058h
757
nallocated
##setter
2858h
dcmqr
oy
##setext
ofmake
listp
keydialog
r0
streams
2cf0
hhcsr
ahhcsr
##iopend
shortstd
##ills
##ilityp
instr1719
skk
##fied
ncr
newvalue
##cpt
##iculty
afixed
##36e
kshortcut
##assertion
instr1754
4165
0a20h
aef
instr1771
partofcommand
adonot
##datasize
##osc
skiprest
##udies
##interrupt
##idevice
18e0
sph
getdemod
abug
b84b
instr1964
1798
snps
astorageposix
hdf5
instr1838
1c10
21a8
##weights
##negotiation
stringlength
##507
appl
b84a
##487
##safeint
instr1790
ametre1authorit
ajtablestrnew
jvm
4121
226h
readstream
##usic
##voic
##park
agame
##qstack
aatt
asged
ajacdgetfloat
recipients
6de
elist
##mv
689
instr1962
305
aauthentication
##declar
5e2
appname
publication
nres
##eclar
ago
##retri
##3c4
tppcontext
4228
drtphysician
scrolledwindow
b8aa
b81f
1114
6be
nstates
instr1715
consttext
varlst
instr1735
##argc
7dd
emp
apciopend
##sfailed
##00000paramete
xmlfre
a41
7ffffffeh
##idli
##ixbuf
compd
##trec
instr1928
19b8
412b
##12f
000000000002b
40e9
flac
402h
##lc
##promis
getpool
44a
##64c0
##58c
ahel
##imensions
ffd
48b
##15a
##12d
##urequested
supply
cddr
##10110310
43ab
ahistory
astock
submission
1f40h
16a
lastchar
13a8
00000000004a
etype
unget
rdir
402f
getseq
1c1h
kofilter
vectors
agmim
##ecase
##1490
741c8h
##getn
##execu
above
instr1808
ahsccm
keystr
aprofile
getfield
##pclient
aunabletof
stateregs
##24c0
##appa
drtreferencedpatient
##erows
qmonmirrorlist
##bet
feedback
trsmx
##corrupt
6140
##ilitypatch
mywindow
##eloop
b810
aencryp
##ptcp
##31h
##fft
lastr
amaind
navigation
uae
xtname
##alarm
919
respond
inmemory
readue
##certificate
##2u
##ugen
4318
##news
ajfmtscans
##orus
prun
2140
eugene
##ovar
192h
cob
17c0
##3410
##existent
302h
upnp
instr1812
##labelvalue
##idriver
atmpfsorthanc
##treached
a66
instr1830
b823
45a8
smx
##confi
acannotset
getapplication
reslab
instr1811
atall
getcolor
printscp
visualizer
instr1780
aextract
4320
dpm
##connectable
hapl
ldwork
##16a
instr1788
000000000041d
##hsec
memcontextfree
##ensator
##etod
2af8h
##5070
building
msd
43dd
xsize
aconstsimtk
##accessories
2798h
sca
ship
##641
##dial
getwidth
plu
##581
31c8
33b8h
setlabel
1660
b8c2
sseries
1b90
18d8
newpath
b821
##llo
instr1728
achickenfilepos
##685
instr1841
##2400
##x11
annotator
102c
sites
1908
nspace
ausrshare
##atus
413d
agml
vpn
##metatype
aconstruct
tlb
##secondary
aignore
newfile
0bc
ppattern
899
4177
instr1730
##icap
asnot
3f3h
lerrno
uddi
story
instr1862
strsep
##quencies
fitx
##entryinfo
logentry
xmtwarningmsg
1a48
##regist
301
ncindex
registeredoptions
40ec
aused
59b0
##devs
##devent
##brightness
309
alayout
3010
17f
agvaluetyp
rescale
awidget
##imdataexport
42d0
##391
##formlayout
rndup
4098h
bail
qlistiterator
ucolindex
##lexec
1730
prg
##33e
43e2
gpos
fcb
##jid
adomain
##aph
4374
416c
439a
1bb0
##organ
wbapplet
modality
achangesync
nextus
##xeasta
##amples
qformlayout
##9b5
41d6
51ah
ggourc
45bb
topic
builtinvariable
aselection
ioc
##openfile
proginfo
##sdisplayed
14d
1b50
6c14
tmr
infd
18e8
ossiminit
407e
##shut
messa
1a60
asmart
aton
1fd0
##enz
instr1854
6df
##ce2
##omy
##physicianidentificationsequence
##tofind
b859
00000000003
wxeventtypetag
##99433authority
##418
##connectionstate
##platfor
acouldnotalloca
##recording
45d0
nch
density
gree
processes
stub
##ussur
##getfile
1630
achangesyncidli
15b0
0fffffc19h
##stanz
ensexon
a63
##fold
43c8
identify
8bc
##oca
filechooser
ossimconnectable
##verest
instr1751
aavailable
0b9
##addres
laddelemstr
4197
aadios
4311
wbuf
selftest
tracedebug
nheight
##keyevent
simpleaction
copie
mousef
6ee
relief
rgs
instr1796
9000
##db4
0fffff000h
##ewrap
psession
1710
aattemp
##sblock
aplease
##channelmanager
sopclass
##orr
instr1745
3058h
41b9
qeventloop
##nable
anomemory
4594
##ndx
3270
bcf9
linkgraph
extraf
astdin
##xnorth
returnvalue
getvalidbits
##otation
##keyboardcontrol
instr1820
43e1
2250
##349
alternate
afd
2328h
0000000000001
wxpanel
##ospatial
19b0
8fc
44f
4a5
aanaly
nep
classic
instr1797
aeugen
sv09
e6
1bc0
##7c4
asyntaxerror
upon
tplptr
00000000004015
npoints
1f9860
##mustb
##linelu
80ch
4440
##akes
afinished
9cc
arestor
1999
performing
xform
##angled
bitset
htmlmarkup
##ographic
aepsg7019
4136
wdr
1fb0
instr1839
dvalp
15e8
wxdir
##ed4
instr1845
##62e
##iat
buffet
##eafter
##alm
setapplication
##modelprivate
##lateralspreading
##scode
##llu
lap
##interact
ilocation
achr
instr1765
ccum
aquit
aconfiguration
##leve
##6972
assemble
1f38h
##ulateddocument
16dh
dwar
gtype
##61a
509
##vie
maj
lngstr
4590
##ddev
4211
##ofd
instr1807
xrd
asger
##enth
##illiseconds
atx
##econnecti
getelt
src1w
lev
achange
pktbuf
412d
compres
2738h
wktparser
##cheduler
##vents
setvr
endtime
logstringbuilder
instr1879
instr1870
##countk
csd
##ecoder
##atives
0ffffff9bh
45d7
paddb
b865
instr1853
defines
##sequenceinrtgeneral
##epart
libfw
0ffffff9dh
##18c
43ca
ossimimagegeometry
deflat
##d2011
9ac
kundo2qstack
instr1810
2280
ajgraphicsdraw
##486
boxes
aactiv
instr1907
ajalign
qmouseevent
aprov
lmm
achick
##parameterfa
scopes
amen
##based
arity
ascouldnot
instr1842
cellrenderer
agvaluetypecomp
instr1861
##paint
##spool
1013
4344
smartctl
##dc5ca
1658
1069
b892
instr1923
3088h
4596
##631
##formatting
versions
informat
407d
15c8
6322
4f98
ajseqgetseqs
shares
5830
llx
13bh
##283
##ellow
dcmtlstransport
drttreatments
usertype
instr1867
1770
bd31
geodesi
##andle
41ad
42f0
##627
44ch
tolatin1
##integration
##bold
##eceived
240000000000000ch
adrag
applic
2af
feats
15c0
instr1736
targetr
2728
awarn
##vertices
hhcev300d
cust
##onl
##182
asrcgemm
aetc
##ernal
691
mux
nid
##defs
sampling
42a2
aadded
##composite
sqlg
9c4h
42a9
##ushell
##itemlist
##945
##347
analyze
##524
22b8h
ccm
##ention
apass
nodata
##alker
euid
live
intqstring
2398h
instr1802
httpclient
ukk
##grow
##183
##2447
##echannel
##pls
##981
instr1914
esltmpp
412c
textiter
unary
##esearch
aroom
1678
r3ds
##uname
##mparse
rfbclientlog
34b8h
avaap
b826
mperm
##nw
##streaming
libfwevt
weather
xquery
##ether
medium
##eresources
athaxislong
athaxislongitud
instr1849
0000000000402b
1fc8h
rpcconnectionstate
4068h
##configfile
1708h
knit
##651
0fd
relationship
vecs
memcontextnew
arrays
upcase
ajstrnewres
##adapt
atm
minx
xmstringfree
aah
love
ajstrfrom
logmessagefatal
950h
welcome
dicomimag
##modifiers
firmware
deinit
439e
3double1double1
intwx
a6378
29a
overview
qmonshare
songeditor
instr1873
##bfh
##1c20
runtimeerror
wpabuf
##inary
##ombi
bd33
instr2002
##ighbour
pager
instr1821
instr1956
writefile
##erequires
aboost
439f
88558h
aprefermpeg
hydrogenapp
initializ
aparsing
##stringtoquark
##strict
##reased
##51c
b82d
pline
instr1906
ssd
0000000000425
##21e
chi
instr2088
symmatrix
instr1984
##triggers
1690
##72d
47a
b89f
dbi
1780
tone
assemin
##repeat
mtm
arans
constraints
sanei
34d8
##float64
rans
wai
##s6
xdrawline
sct
aorggnomegnomea
qlen
asrcp
opl
1330h
##9429
##2d7b
1fcfffh
afvwm
methodname
##isslvpn
instr1824
instr2001
mousefun
arig
asynth
##instantiator
rpoly
prin
instr1793
##2064294978
coo
##da50
##612
1758
4216
ecpsvm
18b8
##dav
popdown
4312
1ba8
3b10
432f
finally
prune
000000000000b
trac
##rob
1890
agtypecheckinst
##iforn
rtp
##strtok
43af
notsupported
ossimdatum
##cfunction
instr1966
fmul
compos
##tengine
##95c
5d20
##639
servers
bd08
b822
##ucial
27ch
haac
343
503
listing
alibsgdisgegdi2
0ff00ff00h
ting
##osaic
0fffffc18h
xcopyarea
sysname
penalty
##contains
mydisplay
ajmemresize
163h
instr1813
000000000042b
##given
5010
##getvalu
ation
akeyp
unz
asrccapnp
getpwuid
##db2
##ificat
59f4c0
dynamicstruct
##jectiontrans
arithmetic
41f9
instr1883
instr1950
connecting
##versemerca
aransversemerca
ransverse
0000000000423
vtp
instr1899
1c58
16d
5a14c0
scen
parsingmode
##processerror
2708h
##notebook
abadparameters
16s
sphe
aproperties
16e0
drtw
bignump
##leand
getlist
instr2065
000000000001a
highest
cpdl
memread
xmlwriter
36s
alibsm
alibsmir
43c3
40ca
datachanged
##pository
weapons
b8a9
##17h
checkrecur
22f8
18a0
ahid
141h
instr1833
42ba
lnk
footer
pzwrite
##993
similar
1bbh
huge
##updater
b79
##56c
bgc
stbuf
1869
instr1776
gvariant
1740
4214
54e8h
##spack
##ufacturer
##etect
characteristic
acommandbackup
0ffffffdch
qso
gettextcatalog
successful
qstringref
1788h
##xts
##09996
1570
##matched
adt
00000000004012
##recent
tkstubsptr
##qslot
hdmin
actor
##charts
aactioninmenu
387h
tocode
##postgres
nlength
writestr
##773
aerrorindexouto
3718
instr1887
ajapi
isym
gkrellmd
affected
##ctxt
unionarray
181h
rtype
0fffff0h
sessions
##startup
gaiatospatial
rollback
8dc
##292
falsetrue
brushstyle
nexttok
pwpath
acmtr
0ffffd8eeh
z2
popcount
selinux
inlin
##uced
4145
ipv6address
rpos
##outofrange
adebugsds
##tography
valptr
doubleunsigned
compoundliteral
1967
##537
instr1850
programming
dcmencaps
instr1878
dcmencapsulateddocument
924
1cd8h
##ultiplier
1828h
41f7
kl
42b8
aglext
##1975
drtsource
tolong
##ioread
aincludelcdf
instr1816
0bf
##packages
atooltip
15e0
xmlschema
ephemer
##getw
43b2
lximage
892
##aren
instr1852
##intgl
4234
atrace
instr1936
doublequotedsql
afileslinedunex
llgt
11dh
instr1940
415a
22d8h
ausrlib
ticables
##fav
aaxisxeastaxisy
##escp
42b9
fire
tli
getdis
instr1911
##98f0
##cann
7ab
##ongroup
ajliststrnew
##brachyapplicationsetup
##ayland
capt
##ddecl
406e
film
aerrorlinelu
abinary
##uint64
econ
417c
##549
simplevector
taxa
vdagent
spirvbin
hes
##1b4
instr1860
instr1805
##inator
instr1889
aprote
b84d
4360
heapdisposer
1ffff
##faileds
listening
phylip
fxfont
##cached
fak
43de
serialized
platforms
buttontext
aschemec
16e8
asysc
##inations
aconversation
soldner
2711h
falsenorthing
b827
2248
instr1847
ashadow
tem
##epip
##almesh
##112113
xmlfreedoc
instr1859
instr1920
##cc4
##easonfor
##thumbnail
instr1892
##soap
ktoolbar
ntri
##clien
endp
instr1855
seqreg
##centralmer
##ecast
00000000004024
aetercentralmer
##ometric
41df
ftello
instr1946
4172
fwvtkio
0000000000402c
actioncollection
utilbin
getstringvaluefromitem
viewlistwidget
##matrixspace
##addressbook
checkdepend
8000000
41bc
1a30
403d10
ainstall
execvp
##uuid
deal
25a
##5e60
##excess
4265
##ruler
alif
serveroptions
2d9
creole
setattr
3048h
adx
finalfp
aoutputfiles
0000000000430
themes
acbufc
ipush
##rest
4580
##emoted
##resolved
[...]
